<unk>	0
<s>	0
</s>	0
<0x00>	0
<0x01>	0
<0x02>	0
<0x03>	0
<0x04>	0
<0x05>	0
<0x06>	0
<0x07>	0
<0x08>	0
<0x09>	0
<0x0A>	0
<0x0B>	0
<0x0C>	0
<0x0D>	0
<0x0E>	0
<0x0F>	0
<0x10>	0
<0x11>	0
<0x12>	0
<0x13>	0
<0x14>	0
<0x15>	0
<0x16>	0
<0x17>	0
<0x18>	0
<0x19>	0
<0x1A>	0
<0x1B>	0
<0x1C>	0
<0x1D>	0
<0x1E>	0
<0x1F>	0
<0x20>	0
<0x21>	0
<0x22>	0
<0x23>	0
<0x24>	0
<0x25>	0
<0x26>	0
<0x27>	0
<0x28>	0
<0x29>	0
<0x2A>	0
<0x2B>	0
<0x2C>	0
<0x2D>	0
<0x2E>	0
<0x2F>	0
<0x30>	0
<0x31>	0
<0x32>	0
<0x33>	0
<0x34>	0
<0x35>	0
<0x36>	0
<0x37>	0
<0x38>	0
<0x39>	0
<0x3A>	0
<0x3B>	0
<0x3C>	0
<0x3D>	0
<0x3E>	0
<0x3F>	0
<0x40>	0
<0x41>	0
<0x42>	0
<0x43>	0
<0x44>	0
<0x45>	0
<0x46>	0
<0x47>	0
<0x48>	0
<0x49>	0
<0x4A>	0
<0x4B>	0
<0x4C>	0
<0x4D>	0
<0x4E>	0
<0x4F>	0
<0x50>	0
<0x51>	0
<0x52>	0
<0x53>	0
<0x54>	0
<0x55>	0
<0x56>	0
<0x57>	0
<0x58>	0
<0x59>	0
<0x5A>	0
<0x5B>	0
<0x5C>	0
<0x5D>	0
<0x5E>	0
<0x5F>	0
<0x60>	0
<0x61>	0
<0x62>	0
<0x63>	0
<0x64>	0
<0x65>	0
<0x66>	0
<0x67>	0
<0x68>	0
<0x69>	0
<0x6A>	0
<0x6B>	0
<0x6C>	0
<0x6D>	0
<0x6E>	0
<0x6F>	0
<0x70>	0
<0x71>	0
<0x72>	0
<0x73>	0
<0x74>	0
<0x75>	0
<0x76>	0
<0x77>	0
<0x78>	0
<0x79>	0
<0x7A>	0
<0x7B>	0
<0x7C>	0
<0x7D>	0
<0x7E>	0
<0x7F>	0
<0x80>	0
<0x81>	0
<0x82>	0
<0x83>	0
<0x84>	0
<0x85>	0
<0x86>	0
<0x87>	0
<0x88>	0
<0x89>	0
<0x8A>	0
<0x8B>	0
<0x8C>	0
<0x8D>	0
<0x8E>	0
<0x8F>	0
<0x90>	0
<0x91>	0
<0x92>	0
<0x93>	0
<0x94>	0
<0x95>	0
<0x96>	0
<0x97>	0
<0x98>	0
<0x99>	0
<0x9A>	0
<0x9B>	0
<0x9C>	0
<0x9D>	0
<0x9E>	0
<0x9F>	0
<0xA0>	0
<0xA1>	0
<0xA2>	0
<0xA3>	0
<0xA4>	0
<0xA5>	0
<0xA6>	0
<0xA7>	0
<0xA8>	0
<0xA9>	0
<0xAA>	0
<0xAB>	0
<0xAC>	0
<0xAD>	0
<0xAE>	0
<0xAF>	0
<0xB0>	0
<0xB1>	0
<0xB2>	0
<0xB3>	0
<0xB4>	0
<0xB5>	0
<0xB6>	0
<0xB7>	0
<0xB8>	0
<0xB9>	0
<0xBA>	0
<0xBB>	0
<0xBC>	0
<0xBD>	0
<0xBE>	0
<0xBF>	0
<0xC0>	0
<0xC1>	0
<0xC2>	0
<0xC3>	0
<0xC4>	0
<0xC5>	0
<0xC6>	0
<0xC7>	0
<0xC8>	0
<0xC9>	0
<0xCA>	0
<0xCB>	0
<0xCC>	0
<0xCD>	0
<0xCE>	0
<0xCF>	0
<0xD0>	0
<0xD1>	0
<0xD2>	0
<0xD3>	0
<0xD4>	0
<0xD5>	0
<0xD6>	0
<0xD7>	0
<0xD8>	0
<0xD9>	0
<0xDA>	0
<0xDB>	0
<0xDC>	0
<0xDD>	0
<0xDE>	0
<0xDF>	0
<0xE0>	0
<0xE1>	0
<0xE2>	0
<0xE3>	0
<0xE4>	0
<0xE5>	0
<0xE6>	0
<0xE7>	0
<0xE8>	0
<0xE9>	0
<0xEA>	0
<0xEB>	0
<0xEC>	0
<0xED>	0
<0xEE>	0
<0xEF>	0
<0xF0>	0
<0xF1>	0
<0xF2>	0
<0xF3>	0
<0xF4>	0
<0xF5>	0
<0xF6>	0
<0xF7>	0
<0xF8>	0
<0xF9>	0
<0xFA>	0
<0xFB>	0
<0xFC>	0
<0xFD>	0
<0xFE>	0
<0xFF>	0
in	-0
▁a	-1
▁t	-2
on	-3
er	-4
es	-5
ti	-6
en	-7
ing	-8
▁c	-9
or	-10
▁s	-11
al	-12
▁th	-13
nd	-14
re	-15
▁p	-16
it	-17
at	-18
tion	-19
▁o	-20
an	-21
▁and	-22
▁in	-23
▁the	-24
ro	-25
▁f	-26
ar	-27
ed	-28
is	-29
▁d	-30
▁m	-31
le	-32
▁w	-33
▁b	-34
ic	-35
▁to	-36
ent	-37
на	-38
▁e	-39
ou	-40
▁of	-41
st	-42
ation	-43
om	-44
ac	-45
ec	-46
el	-47
▁с	-48
▁h	-49
▁re	-50
ur	-51
il	-52
▁п	-53
ers	-54
et	-55
ess	-56
▁на	-57
▁l	-58
те	-59
ol	-60
ig	-61
id	-62
ly	-63
ни	-64
ce	-65
ра	-66
as	-67
та	-68
ve	-69
▁con	-70
▁и	-71
▁u	-72
im	-73
▁д	-74
▁T	-75
th	-76
▁pro	-77
▁A	-78
ment	-79
от	-80
ul	-81
▁C	-82
▁st	-83
ra	-84
▁g	-85
uc	-86
ow	-87
▁в	-88
▁n	-89
▁S	-90
▁ex	-91
ir	-92
--	-93
▁for	-94
ка	-95
од	-96
ts	-97
ва	-98
ity	-99
ко	-100
▁r	-101
ver	-102
ab	-103
ре	-104
ја	-105
▁com	-106
▁I	-107
ate	-108
▁en	-109
ith	-110
us	-111
▁з	-112
▁v	-113
ag	-114
am	-115
то	-116
ter	-117
▁wh	-118
pp	-119
но	-120
ut	-121
qu	-122
tic	-123
▁on	-124
▁with	-125
ри	-126
▁B	-127
em	-128
ion	-129
our	-130
▁y	-131
ay	-132
▁as	-133
if	-134
os	-135
ri	-136
▁за	-137
▁Th	-138
ain	-139
ти	-140
▁P	-141
oc	-142
▁or	-143
ations	-144
не	-145
igh	-146
▁al	-147
▁м	-148
ot	-149
▁ac	-150
for	-151
ли	-152
and	-153
▁M	-154
▁се	-155
▁во	-156
pl	-157
iz	-158
ad	-159
ies	-160
▁г	-161
▁по	-162
▁F	-163
▁ch	-164
▁E	-165
iti	-166
ance	-167
ke	-168
ting	-169
un	-170
ле	-171
od	-172
▁it	-173
▁res	-174
▁be	-175
ува	-176
▁D	-177
ure	-178
ust	-179
ch	-180
rou	-181
▁an	-182
▁de	-183
▁le	-184
op	-185
di	-186
tions	-187
▁од	-188
▁ad	-189
▁int	-190
ци	-191
----	-192
▁im	-193
per	-194
▁comp	-195
▁(	-196
ial	-197
vel	-198
ки	-199
um	-200
ви	-201
▁о	-202
▁R	-203
▁да	-204
▁е	-205
▁W	-206
tive	-207
ла	-208
ous	-209
▁ко	-210
▁is	-211
ap	-212
og	-213
ating	-214
ign	-215
pec	-216
ud	-217
ist	-218
ме	-219
vid	-220
ves	-221
▁pr	-222
enti	-223
ве	-224
▁H	-225
▁their	-226
▁б	-227
gh	-228
▁cont	-229
age	-230
▁со	-231
во	-232
ро	-233
ical	-234
able	-235
▁that	-236
ant	-237
ip	-238
▁In	-239
▁inc	-240
all	-241
ort	-242
ore	-243
▁can	-244
ese	-245
ill	-246
▁us	-247
ard	-248
▁se	-249
▁sh	-250
▁L	-251
enc	-252
king	-253
▁un	-254
cess	-255
are	-256
ine	-257
end	-258
ence	-259
▁не	-260
ст	-261
ма	-262
▁tr	-263
▁pl	-264
ual	-265
ff	-266
▁app	-267
form	-268
ans	-269
duc	-270
▁imp	-271
rom	-272
▁O	-273
▁em	-274
act	-275
ents	-276
▁this	-277
▁your	-278
est	-279
ew	-280
▁by	-281
ge	-282
де	-283
ities	-284
ere	-285
▁str	-286
ach	-287
ње	-288
ments	-289
ens	-290
▁cons	-291
ther	-292
anc	-293
ile	-294
ost	-295
ors	-296
▁*	-297
▁suc	-298
ong	-299
fer	-300
▁U	-301
▁dis	-302
▁at	-303
▁де	-304
▁su	-305
ат	-306
uring	-307
ility	-308
▁С	-309
▁li	-310
▁G	-311
ld	-312
rough	-313
ated	-314
ast	-315
ving	-316
ep	-317
▁we	-318
out	-319
nder	-320
tional	-321
▁wor	-322
▁you	-323
ib	-324
▁comm	-325
▁The	-326
ue	-327
▁from	-328
ential	-329
ло	-330
▁he	-331
▁par	-332
ight	-333
ech	-334
▁into	-335
▁до	-336
low	-337
ски	-338
ks	-339
▁N	-340
▁а	-341
▁these	-342
▁inter	-343
▁man	-344
ful	-345
ven	-346
ди	-347
ary	-348
▁are	-349
▁ab	-350
ons	-351
▁cre	-352
ati	-353
lec	-354
▁St	-355
ific	-356
▁ro	-357
ail	-358
ome	-359
▁its	-360
ите	-361
▁pre	-362
▁di	-363
ста	-364
ures	-365
▁пре	-366
her	-367
▁П	-368
ear	-369
▁cl	-370
▁ar	-371
▁per	-372
▁provid	-373
ious	-374
ress	-375
over	-376
га	-377
ell	-378
▁ка	-379
--------	-380
▁sp	-381
▁under	-382
▁М	-383
▁j	-384
▁through	-385
ќе	-386
▁-	-387
▁tra	-388
echn	-389
▁des	-390
ace	-391
ding	-392
▁у	-393
ark	-394
vers	-395
ми	-396
▁ser	-397
velop	-398
av	-399
до	-400
ide	-401
oun	-402
ry	-403
ates	-404
▁bet	-405
eg	-406
tim	-407
▁exper	-408
olog	-409
ack	-410
▁го	-411
ning	-412
tain	-413
▁rec	-414
lic	-415
▁ра	-416
▁me	-417
▁incl	-418
▁such	-419
ку	-420
ms	-421
▁over	-422
stand	-423
ult	-424
▁reg	-425
ција	-426
ive	-427
▁op	-428
▁ins	-429
че	-430
▁Н	-431
▁rel	-432
ect	-433
ба	-434
ef	-435
▁Wh	-436
ely	-437
hip	-438
▁like	-439
▁ш	-440
les	-441
ple	-442
se	-443
▁bo	-444
ish	-445
▁techn	-446
we	-447
ass	-448
▁By	-449
vol	-450
▁This	-451
ges	-452
ular	-453
ater	-454
▁ha	-455
ateg	-456
го	-457
ire	-458
ото	-459
tical	-460
▁В	-461
сти	-462
▁sign	-463
ia	-464
ind	-465
▁qu	-466
ich	-467
ions	-468
да	-469
лу	-470
▁am	-471
eed	-472
▁eff	-473
▁trans	-474
ase	-475
▁As	-476
▁col	-477
iqu	-478
ните	-479
▁includ	-480
pport	-481
▁while	-482
▁V	-483
▁develop	-484
▁up	-485
▁К	-486
ен	-487
ative	-488
ruc	-489
ose	-490
▁high	-491
round	-492
rib	-493
ider	-494
▁ens	-495
ната	-496
▁ma	-497
▁they	-498
▁acc	-499
oo	-500
▁про	-501
ower	-502
▁ass	-503
ten	-504
als	-505
ory	-506
cl	-507
зи	-508
ph	-509
▁т	-510
▁tim	-511
▁ја	-512
▁expl	-513
▁мо	-514
alth	-515
▁commun	-516
ween	-517
ска	-518
row	-519
ences	-520
vic	-521
▁var	-522
▁rem	-523
▁Ch	-524
▁sy	-525
по	-526
▁ќе	-527
ci	-528
▁–	-529
▁Con	-530
ување	-531
▁between	-532
▁из	-533
▁our	-534
ues	-535
oy	-536
ever	-537
ne	-538
ability	-539
чи	-540
ру	-541
tiv	-542
▁pers	-543
▁how	-544
▁pot	-545
▁experi	-546
ditional	-547
ак	-548
▁will	-549
▁би	-550
ational	-551
▁out	-552
▁requ	-553
ased	-554
▁spec	-555
ards	-556
arket	-557
iness	-558
ond	-559
ric	-560
ould	-561
ging	-562
▁K	-563
▁pos	-564
its	-565
▁when	-566
▁при	-567
▁k	-568
си	-569
▁eng	-570
се	-571
..	-572
standing	-573
vidual	-574
би	-575
▁indi	-576
ys	-577
ub	-578
▁rep	-579
▁te	-580
▁potential	-581
ite	-582
▁ре	-583
pt	-584
▁inst	-585
сто	-586
▁signific	-587
ound	-588
▁produc	-589
▁individual	-590
мо	-591
▁play	-592
▁што	-593
▁strateg	-594
▁exam	-595
▁about	-596
же	-597
▁ф	-598
ize	-599
▁fe	-600
▁Ad	-601
▁val	-602
now	-603
ved	-604
par	-605
stem	-606
▁prom	-607
▁ind	-608
▁J	-609
▁ph	-610
▁them	-611
▁more	-612
ness	-613
elf	-614
ros	-615
one	-616
оди	-617
▁Д	-618
▁О	-619
▁„	-620
▁design	-621
izing	-622
ak	-623
▁lead	-624
ining	-625
▁prac	-626
▁disc	-627
▁stud	-628
▁process	-629
▁health	-630
▁main	-631
▁off	-632
ering	-633
▁Ex	-634
▁all	-635
usiness	-636
allen	-637
▁sc	-638
usion	-639
gan	-640
▁adv	-641
▁various	-642
▁during	-643
▁have	-644
▁dec	-645
▁An	-646
▁consider	-647
ights	-648
onal	-649
ital	-650
res	-651
ency	-652
rac	-653
ob	-654
▁has	-655
tern	-656
▁▁	-657
▁ме	-658
▁то	-659
).	-660
▁ag	-661
▁allow	-662
▁дека	-663
па	-664
ines	-665
▁к	-666
▁appro	-667
▁not	-668
ata	-669
бо	-670
▁pol	-671
▁may	-672
жи	-673
▁both	-674
ted	-675
ings	-676
▁For	-677
ty	-678
ood	-679
agement	-680
oci	-681
▁hel	-682
por	-683
ection	-684
▁И	-685
▁market	-686
▁invol	-687
▁so	-688
▁exp	-689
бе	-690
▁mod	-691
▁Т	-692
▁sk	-693
▁challen	-694
ural	-695
▁dem	-696
ern	-697
til	-698
▁del	-699
▁prof	-700
▁pres	-701
yp	-702
▁те	-703
▁Б	-704
ше	-705
▁significant	-706
get	-707
▁А	-708
ized	-709
▁new	-710
це	-711
ribut	-712
▁но	-713
▁Com	-714
▁care	-715
so	-716
▁other	-717
▁ги	-718
▁fin	-719
за	-720
ustom	-721
▁which	-722
aging	-723
▁gen	-724
▁Pro	-725
▁business	-726
▁set	-727
▁ве	-728
▁incre	-729
▁help	-730
▁sa	-731
urther	-732
▁ext	-733
▁dif	-734
▁need	-735
clusion	-736
▁ke	-737
ition	-738
ex	-739
▁effec	-740
uil	-741
▁How	-742
ough	-743
▁inf	-744
vely	-745
▁system	-746
old	-747
ov	-748
▁bec	-749
▁partic	-750
com	-751
▁there	-752
▁resp	-753
▁time	-754
tics	-755
led	-756
▁enh	-757
▁within	-758
ross	-759
▁also	-760
▁success	-761
ake	-762
ici	-763
ances	-764
ages	-765
ology	-766
ocus	-767
▁med	-768
▁add	-769
▁ни	-770
гра	-771
▁met	-772
▁cap	-773
ling	-774
▁organ	-775
wor	-776
▁one	-777
ise	-778
▁Un	-779
iew	-780
▁ev	-781
▁loc	-782
ниот	-783
ces	-784
▁impro	-785
ath	-786
▁ref	-787
ently	-788
▁vis	-789
ourse	-790
▁ess	-791
▁offer	-792
▁са	-793
▁grow	-794
▁fost	-795
▁inform	-796
▁З	-797
),	-798
▁ever	-799
▁au	-800
▁fac	-801
▁who	-802
ible	-803
ication	-804
нија	-805
pportun	-806
ount	-807
▁lear	-808
▁sur	-809
▁These	-810
ie	-811
oring	-812
oin	-813
▁than	-814
ality	-815
▁ed	-816
ically	-817
▁know	-818
▁tow	-819
▁data	-820
emb	-821
ands	-822
irst	-823
arm	-824
▁where	-825
▁focus	-826
ique	-827
▁perform	-828
ца	-829
▁world	-830
▁some	-831
pect	-832
▁maintain	-833
▁En	-834
▁comple	-835
▁co	-836
ct	-837
едо	-838
▁custom	-839
▁Int	-840
▁бе	-841
ги	-842
▁prog	-843
▁Р	-844
ization	-845
▁chan	-846
roduc	-847
ately	-848
ution	-849
▁do	-850
aking	-851
▁sec	-852
tit	-853
▁како	-854
▁па	-855
▁sol	-856
enef	-857
▁differ	-858
акедо	-859
жа	-860
▁det	-861
▁ма	-862
▁opportun	-863
▁sim	-864
▁att	-865
▁ra	-866
▁essential	-867
▁"	-868
▁пра	-869
ety	-870
ree	-871
▁mo	-872
ays	-873
▁including	-874
рот	-875
erg	-876
abor	-877
less	-878
▁any	-879
▁ми	-880
▁sub	-881
▁годи	-882
ics	-883
▁ин	-884
ту	-885
▁ви	-886
▁To	-887
▁Im	-888
▁respons	-889
vices	-890
▁gu	-891
▁ob	-892
fore	-893
▁**	-894
▁development	-895
▁work	-896
пи	-897
ties	-898
rucial	-899
▁among	-900
iron	-901
ources	-902
▁contribut	-903
▁access	-904
reat	-905
ilities	-906
art	-907
▁под	-908
▁crucial	-909
ord	-910
ram	-911
▁personal	-912
▁However	-913
lish	-914
ols	-915
----------------	-916
ying	-917
▁кои	-918
▁Г	-919
line	-920
ally	-921
▁what	-922
egr	-923
▁inves	-924
ession	-925
▁prot	-926
▁import	-927
▁form	-928
со	-929
▁conf	-930
▁but	-931
ft	-932
▁power	-933
viron	-934
▁ent	-935
lect	-936
ploy	-937
own	-938
▁contin	-939
▁bl	-940
▁conn	-941
utions	-942
▁unique	-943
▁no	-944
▁има	-945
**	-946
unc	-947
entif	-948
▁might	-949
▁benef	-950
▁role	-951
ru	-952
▁understanding	-953
uss	-954
пе	-955
▁id	-956
▁those	-957
▁often	-958
▁anal	-959
rol	-960
▁enc	-961
ame	-962
ead	-963
tices	-964
iting	-965
▁skill	-966
ature	-967
▁conc	-968
▁inn	-969
ends	-970
нски	-971
▁It	-972
▁typ	-973
▁let	-974
ор	-975
els	-976
▁buil	-977
▁real	-978
▁min	-979
atform	-980
labor	-981
▁relations	-982
▁fl	-983
ред	-984
iss	-985
род	-986
other	-987
▁educ	-988
aw	-989
ps	-990
▁Ac	-991
ollow	-992
▁strategies	-993
▁applic	-994
▁due	-995
▁see	-996
▁char	-997
ша	-998
lev	-999
▁На	-1000
▁environ	-1001
▁си	-1002
▁equ	-1003
▁approach	-1004
▁using	-1005
▁mul	-1006
ook	-1007
▁cult	-1008
ily	-1009
ili	-1010
▁fact	-1011
ност	-1012
ather	-1013
ples	-1014
▁his	-1015
asing	-1016
acy	-1017
ocial	-1018
▁every	-1019
ча	-1020
hips	-1021
ris	-1022
▁across	-1023
гу	-1024
ared	-1025
ffor	-1026
ture	-1027
ang	-1028
▁towards	-1029
▁dist	-1030
▁growth	-1031
▁overall	-1032
▁gl	-1033
oura	-1034
▁об	-1035
▁iss	-1036
▁One	-1037
ey	-1038
▁lif	-1039
▁More	-1040
вој	-1041
▁require	-1042
уваат	-1043
▁key	-1044
▁нај	-1045
ners	-1046
▁pur	-1047
▁individuals	-1048
▁Е	-1049
jec	-1050
▁remain	-1051
▁pe	-1052
erm	-1053
▁oper	-1054
▁cur	-1055
ден	-1056
roduction	-1057
▁decis	-1058
тот	-1059
▁saf	-1060
▁challenges	-1061
▁gener	-1062
▁promot	-1063
▁practices	-1064
▁av	-1065
ibility	-1066
▁While	-1067
▁sever	-1068
▁experience	-1069
▁раз	-1070
ice	-1071
▁platform	-1072
uch	-1073
▁go	-1074
▁pri	-1075
▁emb	-1076
iques	-1077
▁est	-1078
ination	-1079
▁opportunities	-1080
▁sm	-1081
▁long	-1082
▁та	-1083
con	-1084
cep	-1085
▁could	-1086
вр	-1087
ecess	-1088
ases	-1089
сте	-1090
▁innov	-1091
▁Moreover	-1092
▁ли	-1093
ets	-1094
▁integr	-1095
▁her	-1096
▁even	-1097
▁provide	-1098
▁each	-1099
ism	-1100
arding	-1101
▁func	-1102
▁address	-1103
▁multi	-1104
▁Al	-1105
▁beh	-1106
ract	-1107
▁profession	-1108
ablish	-1109
▁With	-1110
▁Cons	-1111
aterial	-1112
▁follow	-1113
▁Македо	-1114
▁Y	-1115
▁ensuring	-1116
ници	-1117
▁team	-1118
▁ear	-1119
▁divers	-1120
ublic	-1121
ancing	-1122
▁&	-1123
▁може	-1124
raph	-1125
iel	-1126
▁if	-1127
▁employ	-1128
ogn	-1129
ories	-1130
itive	-1131
▁lo	-1132
tively	-1133
▁part	-1134
eng	-1135
ape	-1136
▁must	-1137
рија	-1138
ental	-1139
orpor	-1140
▁mus	-1141
ether	-1142
pects	-1143
ња	-1144
▁кон	-1145
▁back	-1146
▁ris	-1147
ron	-1148
▁indust	-1149
▁hum	-1150
atch	-1151
▁include	-1152
fter	-1153
▁Introduction	-1154
▁enab	-1155
▁reduc	-1156
ants	-1157
▁ста	-1158
▁offers	-1159
са	-1160
бот	-1161
▁explore	-1162
▁hist	-1163
▁stand	-1164
▁level	-1165
▁insights	-1166
ick	-1167
lu	-1168
ши	-1169
▁cle	-1170
ката	-1171
ied	-1172
▁requir	-1173
view	-1174
▁тоа	-1175
▁De	-1176
ditionally	-1177
▁ow	-1178
igital	-1179
earch	-1180
мен	-1181
aus	-1182
▁based	-1183
...	-1184
▁pop	-1185
▁throughout	-1186
▁create	-1187
ble	-1188
lement	-1189
▁When	-1190
▁initi	-1191
iv	-1192
▁По	-1193
anced	-1194
▁Through	-1195
тра	-1196
▁Under	-1197
▁tw	-1198
▁proper	-1199
▁support	-1200
day	-1201
▁around	-1202
▁II	-1203
▁Re	-1204
hod	-1205
▁кој	-1206
▁social	-1207
▁За	-1208
чки	-1209
mer	-1210
ние	-1211
▁num	-1212
▁collabor	-1213
▁material	-1214
vice	-1215
uture	-1216
avig	-1217
▁necess	-1218
ield	-1219
▁different	-1220
▁resources	-1221
▁discuss	-1222
▁ensure	-1223
.,	-1224
und	-1225
▁associ	-1226
▁cho	-1227
ertain	-1228
ording	-1229
itle	-1230
▁supp	-1231
▁compon	-1232
▁example	-1233
▁several	-1234
▁impact	-1235
▁compan	-1236
лку	-1237
▁further	-1238
▁Additionally	-1239
▁techniques	-1240
▁providing	-1241
ската	-1242
rand	-1243
atures	-1244
▁emp	-1245
ште	-1246
▁bre	-1247
ored	-1248
▁organiz	-1249
▁factors	-1250
▁unit	-1251
ext	-1252
▁make	-1253
▁optim	-1254
▁research	-1255
▁management	-1256
▁complex	-1257
▁performance	-1258
▁particular	-1259
▁systems	-1260
▁poss	-1261
tives	-1262
ength	-1263
ство	-1264
▁sch	-1265
▁def	-1266
▁гра	-1267
вите	-1268
▁skills	-1269
str	-1270
▁br	-1271
▁repres	-1272
▁exc	-1273
▁consum	-1274
кот	-1275
▁activ	-1276
▁web	-1277
te	-1278
▁many	-1279
▁prev	-1280
rect	-1281
▁effici	-1282
▁Title	-1283
▁gain	-1284
▁effor	-1285
▁dep	-1286
ledge	-1287
ensive	-1288
▁Unit	-1289
ending	-1290
▁от	-1291
▁polic	-1292
▁arti	-1293
▁students	-1294
▁imm	-1295
▁или	-1296
▁services	-1297
▁fam	-1298
вен	-1299
▁leg	-1300
▁sens	-1301
ications	-1302
▁Step	-1303
▁marketing	-1304
▁again	-1305
▁communication	-1306
▁information	-1307
▁issues	-1308
▁aim	-1309
▁aw	-1310
fact	-1311
ins	-1312
▁plan	-1313
▁well	-1314
▁година	-1315
▁method	-1316
▁technology	-1317
▁instance	-1318
▁learning	-1319
▁Ко	-1320
▁improve	-1321
▁successful	-1322
▁Во	-1323
ock	-1324
▁users	-1325
фи	-1326
▁car	-1327
▁course	-1328
▁intern	-1329
▁Conclusion	-1330
▁Ar	-1331
▁end	-1332
ltim	-1333
▁aspects	-1334
▁App	-1335
▁'	-1336
▁establish	-1337
ditions	-1338
▁identif	-1339
▁ele	-1340
▁ва	-1341
to	-1342
▁биде	-1343
struc	-1344
urn	-1345
▁before	-1346
ior	-1347
▁пред	-1348
▁digital	-1349
ange	-1350
▁consist	-1351
лед	-1352
▁On	-1353
ран	-1354
▁hand	-1355
▁benefits	-1356
▁fostering	-1357
li	-1358
▁Em	-1359
care	-1360
▁regarding	-1361
▁environment	-1362
пра	-1363
▁open	-1364
▁been	-1365
onstr	-1366
▁prin	-1367
yn	-1368
ograph	-1369
tice	-1370
air	-1371
▁influ	-1372
▁Key	-1373
вата	-1374
реме	-1375
▁control	-1376
▁Македонија	-1377
▁public	-1378
▁without	-1379
сно	-1380
▁тре	-1381
ild	-1382
ilar	-1383
ер	-1384
▁conclusion	-1385
▁needs	-1386
urity	-1387
▁ис	-1388
▁Understanding	-1389
lying	-1390
ancial	-1391
equ	-1392
▁allows	-1393
alu	-1394
▁deep	-1395
▁future	-1396
▁two	-1397
ner	-1398
ции	-1399
▁cri	-1400
јата	-1401
▁associated	-1402
▁local	-1403
▁Further	-1404
▁tools	-1405
лни	-1406
lection	-1407
▁aff	-1408
▁Let	-1409
acter	-1410
▁along	-1411
yond	-1412
▁beyond	-1413
▁creating	-1414
ilit	-1415
▁commit	-1416
▁auth	-1417
pir	-1418
лен	-1419
ufact	-1420
▁against	-1421
▁businesses	-1422
more	-1423
▁significantly	-1424
▁diverse	-1425
▁demonstr	-1426
▁cost	-1427
▁So	-1428
▁minim	-1429
ological	-1430
▁found	-1431
▁pass	-1432
▁mon	-1433
▁це	-1434
▁guid	-1435
ian	-1436
▁take	-1437
▁mean	-1438
ug	-1439
▁experiences	-1440
▁resul	-1441
▁At	-1442
▁jour	-1443
▁Ка	-1444
▁dri	-1445
amp	-1446
iver	-1447
ltimately	-1448
du	-1449
ѓа	-1450
▁maintaining	-1451
arch	-1452
▁year	-1453
▁traditional	-1454
▁analy	-1455
▁down	-1456
▁community	-1457
▁Man	-1458
arget	-1459
▁Furthermore	-1460
▁life	-1461
▁only	-1462
ем	-1463
▁incorpor	-1464
omes	-1465
▁прет	-1466
▁bel	-1467
▁pati	-1468
▁cent	-1469
▁Sh	-1470
▁specific	-1471
кти	-1472
the	-1473
▁first	-1474
▁online	-1475
ject	-1476
▁highl	-1477
ined	-1478
▁knowledge	-1479
је	-1480
▁quality	-1481
ade	-1482
ember	-1483
▁Des	-1484
зна	-1485
cept	-1486
▁phys	-1487
▁top	-1488
▁compe	-1489
hie	-1490
reci	-1491
▁self	-1492
ash	-1493
port	-1494
▁која	-1495
ream	-1496
▁better	-1497
atives	-1498
▁achie	-1499
▁just	-1500
ustain	-1501
▁connec	-1502
▁х	-1503
▁ч	-1504
▁understand	-1505
▁bro	-1506
▁user	-1507
▁све	-1508
ators	-1509
oot	-1510
▁encoura	-1511
ix	-1512
▁platforms	-1513
▁Be	-1514
▁invest	-1515
▁setting	-1516
▁navig	-1517
лно	-1518
▁Pl	-1519
▁стра	-1520
▁implement	-1521
▁First	-1522
▁organizations	-1523
▁lim	-1524
elling	-1525
ney	-1526
▁meas	-1527
▁components	-1528
▁education	-1529
дна	-1530
▁ова	-1531
aling	-1532
ногу	-1533
up	-1534
▁cra	-1535
▁audi	-1536
ually	-1537
etwor	-1538
рите	-1539
▁importance	-1540
▁multiple	-1541
ware	-1542
▁increasing	-1543
▁relationships	-1544
▁пот	-1545
▁We	-1546
▁most	-1547
▁present	-1548
▁soci	-1549
▁concern	-1550
xim	-1551
ergy	-1552
action	-1553
▁special	-1554
▁prim	-1555
▁emo	-1556
▁travel	-1557
▁gra	-1558
▁human	-1559
▁does	-1560
##	-1561
тите	-1562
▁comb	-1563
▁elements	-1564
▁struc	-1565
▁industry	-1566
ists	-1567
▁become	-1568
▁contribute	-1569
▁financial	-1570
▁sit	-1571
▁Ф	-1572
▁ди	-1573
▁gover	-1574
▁appreci	-1575
andsc	-1576
▁regul	-1577
▁seeking	-1578
▁avail	-1579
reh	-1580
ced	-1581
оде	-1582
▁requires	-1583
▁involves	-1584
▁value	-1585
▁adap	-1586
▁recogn	-1587
▁cor	-1588
гово	-1589
au	-1590
▁bal	-1591
▁▁▁▁	-1592
▁Cont	-1593
▁target	-1594
пре	-1595
▁leading	-1596
▁У	-1597
▁particip	-1598
elves	-1599
▁неко	-1600
thers	-1601
iec	-1602
▁case	-1603
▁allowing	-1604
▁valu	-1605
ysis	-1606
ржа	-1607
▁features	-1608
▁сите	-1609
▁relev	-1610
ries	-1611
▁strength	-1612
▁prefer	-1613
вото	-1614
▁today	-1615
▁used	-1616
▁Се	-1617
pos	-1618
нот	-1619
ption	-1620
▁modern	-1621
erc	-1622
▁tail	-1623
▁manufact	-1624
▁sustain	-1625
▁show	-1626
▁util	-1627
aring	-1628
ze	-1629
rit	-1630
▁ful	-1631
ciples	-1632
▁aut	-1633
▁direct	-1634
ices	-1635
ren	-1636
▁ба	-1637
▁options	-1638
atis	-1639
inal	-1640
ynam	-1641
▁жи	-1642
▁Л	-1643
ќи	-1644
▁landsc	-1645
▁Exam	-1646
▁continu	-1647
ration	-1648
▁gre	-1649
encies	-1650
▁Со	-1651
▁processes	-1652
▁пе	-1653
▁step	-1654
fully	-1655
вно	-1656
▁дру	-1657
▁levels	-1658
erous	-1659
▁surround	-1660
▁transform	-1661
▁provides	-1662
▁му	-1663
▁ти	-1664
▁Tr	-1665
▁brand	-1666
▁pat	-1667
▁trust	-1668
▁strong	-1669
vity	-1670
▁poli	-1671
рање	-1672
▁own	-1673
term	-1674
▁should	-1675
▁engagement	-1676
▁enhance	-1677
рт	-1678
▁Comm	-1679
▁Ј	-1680
self	-1681
ests	-1682
ax	-1683
▁Course	-1684
▁best	-1685
istic	-1686
шти	-1687
▁read	-1688
веќе	-1689
▁efforts	-1690
цијата	-1691
▁Col	-1692
aces	-1693
▁safety	-1694
▁зна	-1695
▁another	-1696
ooking	-1697
▁being	-1698
▁popular	-1699
ум	-1700
▁men	-1701
▁clos	-1702
▁es	-1703
▁though	-1704
oint	-1705
ѓу	-1706
▁ку	-1707
▁character	-1708
ода	-1709
omm	-1710
ber	-1711
ee	-1712
▁lar	-1713
▁effective	-1714
ifically	-1715
▁effectively	-1716
што	-1717
ќа	-1718
▁way	-1719
▁critical	-1720
isting	-1721
▁пр	-1722
▁Ind	-1723
▁vers	-1724
ars	-1725
▁following	-1726
▁comes	-1727
▁extract	-1728
▁detail	-1729
eth	-1730
▁conditions	-1731
▁broad	-1732
фе	-1733
▁glob	-1734
▁Comp	-1735
▁after	-1736
▁use	-1737
rop	-1738
▁materials	-1739
▁represent	-1740
phas	-1741
▁Не	-1742
▁deliver	-1743
oid	-1744
▁content	-1745
▁media	-1746
ll	-1747
▁But	-1748
▁ide	-1749
ger	-1750
ople	-1751
tention	-1752
lecting	-1753
▁why	-1754
▁others	-1755
ource	-1756
ivers	-1757
▁networ	-1758
▁само	-1759
ression	-1760
▁applications	-1761
▁fil	-1762
▁law	-1763
▁cultural	-1764
зе	-1765
ral	-1766
▁product	-1767
▁common	-1768
ologies	-1769
orical	-1770
▁rest	-1771
▁grou	-1772
▁promoting	-1773
ired	-1774
▁tal	-1775
▁ter	-1776
go	-1777
pite	-1778
jects	-1779
ink	-1780
▁methods	-1781
elines	-1782
tif	-1783
▁treat	-1784
▁concerns	-1785
ike	-1786
▁focusing	-1787
▁decision	-1788
▁necessary	-1789
вот	-1790
▁ill	-1791
duce	-1792
▁exploring	-1793
бра	-1794
empor	-1795
by	-1796
▁caus	-1797
▁seem	-1798
▁products	-1799
▁cli	-1800
▁cul	-1801
▁principles	-1802
▁solutions	-1803
▁areas	-1804
пу	-1805
▁evol	-1806
▁aspect	-1807
br	-1808
▁compreh	-1809
pre	-1810
▁view	-1811
нува	-1812
cc	-1813
▁was	-1814
▁Develop	-1815
▁слу	-1816
▁priv	-1817
▁visual	-1818
▁behav	-1819
orts	-1820
▁valuable	-1821
plications	-1822
▁clear	-1823
▁dynam	-1824
▁ret	-1825
echan	-1826
ser	-1827
▁numerous	-1828
▁serve	-1829
atural	-1830
ane	-1831
лика	-1832
▁certain	-1833
вни	-1834
▁energy	-1835
▁important	-1836
▁scen	-1837
▁Reg	-1838
рај	-1839
▁competi	-1840
raw	-1841
▁многу	-1842
▁designed	-1843
▁sal	-1844
лот	-1845
рен	-1846
▁shap	-1847
▁curr	-1848
▁mind	-1849
▁whether	-1850
pping	-1851
embers	-1852
▁informed	-1853
▁customer	-1854
▁remains	-1855
▁field	-1856
rams	-1857
▁less	-1858
▁кори	-1859
▁gr	-1860
▁building	-1861
actions	-1862
▁пла	-1863
▁home	-1864
▁Over	-1865
ното	-1866
▁events	-1867
▁They	-1868
inary	-1869
дно	-1870
kes	-1871
▁piec	-1872
она	-1873
▁healthcare	-1874
▁sty	-1875
▁Str	-1876
zing	-1877
тор	-1878
▁ques	-1879
▁ком	-1880
▁upon	-1881
▁available	-1882
▁meaning	-1883
▁ensures	-1884
жува	-1885
ско	-1886
aries	-1887
▁фи	-1888
vis	-1889
▁altern	-1890
▁sug	-1891
▁particularly	-1892
▁треба	-1893
rain	-1894
▁повеќе	-1895
▁security	-1896
▁connections	-1897
▁communities	-1898
hold	-1899
meric	-1900
▁physical	-1901
▁provided	-1902
ason	-1903
comes	-1904
abilities	-1905
▁govern	-1906
ari	-1907
▁journey	-1908
atory	-1909
▁Acc	-1910
conom	-1911
fort	-1912
▁count	-1913
racing	-1914
фор	-1915
▁facilit	-1916
▁ded	-1917
нес	-1918
▁surrounding	-1919
▁people	-1920
▁ус	-1921
:**	-1922
▁Stud	-1923
▁activities	-1924
▁class	-1925
▁работ	-1926
red	-1927
ited	-1928
ну	-1929
osing	-1930
ave	-1931
ones	-1932
▁Res	-1933
▁feel	-1934
▁relevant	-1935
▁бо	-1936
▁него	-1937
▁et	-1938
rim	-1939
▁tailored	-1940
лите	-1941
▁professionals	-1942
▁members	-1943
▁adapt	-1944
ush	-1945
▁making	-1946
▁enables	-1947
lex	-1948
▁intric	-1949
▁mental	-1950
▁nar	-1951
▁pattern	-1952
▁evalu	-1953
▁trends	-1954
▁el	-1955
itions	-1956
ier	-1957
▁сво	-1958
▁Rec	-1959
▁им	-1960
emporary	-1961
oss	-1962
▁fund	-1963
iod	-1964
▁вр	-1965
▁increased	-1966
▁state	-1967
▁rather	-1968
ening	-1969
▁post	-1970
▁outcomes	-1971
▁enhancing	-1972
dition	-1973
▁leaders	-1974
icial	-1975
▁art	-1976
urr	-1977
▁collaboration	-1978
eness	-1979
▁soft	-1980
ict	-1981
▁emphas	-1982
▁incorporating	-1983
be	-1984
▁vital	-1985
▁Cl	-1986
▁press	-1987
јќи	-1988
▁време	-1989
ising	-1990
▁study	-1991
▁He	-1992
▁спо	-1993
▁occ	-1994
isc	-1995
▁нема	-1996
▁Ма	-1997
avor	-1998
тер	-1999
▁years	-2000
▁Х	-2001
▁Fin	-2002
лем	-2003
▁accur	-2004
▁Tra	-2005
▁ле	-2006
tig	-2007
ters	-2008
гаш	-2009
▁Chris	-2010
▁Ш	-2011
ected	-2012
▁align	-2013
▁Gu	-2014
ense	-2015
▁move	-2016
вски	-2017
▁decisions	-2018
▁сме	-2019
▁yourself	-2020
▁advant	-2021
▁child	-2022
▁Americ	-2023
▁Anal	-2024
ium	-2025
▁recent	-2026
▁values	-2027
вува	-2028
atic	-2029
▁via	-2030
▁would	-2031
▁fre	-2032
▁rates	-2033
▁situ	-2034
ises	-2035
дат	-2036
▁Q	-2037
pective	-2038
pri	-2039
▁webs	-2040
ats	-2041
▁helps	-2042
лна	-2043
ounter	-2044
oints	-2045
ince	-2046
ball	-2047
ming	-2048
▁functional	-2049
▁addressing	-2050
▁music	-2051
▁че	-2052
▁ultimately	-2053
of	-2054
▁bod	-2055
ously	-2056
joy	-2057
orting	-2058
чно	-2059
▁stri	-2060
ways	-2061
▁natural	-2062
▁engage	-2063
▁ve	-2064
irc	-2065
▁mechan	-2066
▁eas	-2067
▁ther	-2068
▁enti	-2069
▁Christi	-2070
▁yet	-2071
ecting	-2072
▁becomes	-2073
ool	-2074
▁секо	-2075
▁service	-2076
▁commitment	-2077
▁stay	-2078
▁prior	-2079
▁attention	-2080
▁plays	-2081
▁reli	-2082
ury	-2083
▁neg	-2084
▁ту	-2085
▁engaging	-2086
▁foster	-2087
aching	-2088
acks	-2089
▁conven	-2090
▁elect	-2091
ips	-2092
▁нив	-2093
pro	-2094
time	-2095
▁find	-2096
▁similar	-2097
▁serves	-2098
ale	-2099
asts	-2100
▁lay	-2101
▁program	-2102
▁pay	-2103
ward	-2104
inating	-2105
▁global	-2106
▁enjoy	-2107
▁appe	-2108
▁mar	-2109
de	-2110
▁planning	-2111
чна	-2112
▁ц	-2113
▁small	-2114
sts	-2115
▁Another	-2116
▁autom	-2117
▁und	-2118
ulation	-2119
▁resili	-2120
зо	-2121
стра	-2122
увањето	-2123
▁too	-2124
▁programs	-2125
▁risks	-2126
▁non	-2127
▁rob	-2128
▁Or	-2129
▁story	-2130
ores	-2131
чни	-2132
▁кога	-2133
aps	-2134
ery	-2135
▁assess	-2136
back	-2137
ission	-2138
▁empower	-2139
▁Ре	-2140
▁If	-2141
▁goals	-2142
▁shared	-2143
▁delve	-2144
▁беше	-2145
скиот	-2146
▁specifically	-2147
▁су	-2148
ym	-2149
▁build	-2150
▁innovation	-2151
▁Expl	-2152
ames	-2153
▁ability	-2154
тен	-2155
▁без	-2156
▁result	-2157
▁risk	-2158
▁пора	-2159
▁international	-2160
angu	-2161
▁econom	-2162
ees	-2163
▁act	-2164
icate	-2165
▁involved	-2166
▁partners	-2167
▁change	-2168
▁regular	-2169
▁craf	-2170
asc	-2171
▁customers	-2172
▁learn	-2173
▁God	-2174
▁meet	-2175
▁Ми	-2176
▁rece	-2177
▁“	-2178
▁working	-2179
▁sym	-2180
▁patterns	-2181
urs	-2182
▁Techn	-2183
▁according	-2184
▁concept	-2185
су	-2186
▁results	-2187
ocu	-2188
▁landscape	-2189
▁positive	-2190
▁spir	-2191
oration	-2192
▁From	-2193
iven	-2194
▁игра	-2195
▁water	-2196
▁оп	-2197
▁keep	-2198
asting	-2199
▁made	-2200
кт	-2201
▁Ass	-2202
going	-2203
▁Consider	-2204
▁measures	-2205
ament	-2206
▁mem	-2207
нг	-2208
▁Pers	-2209
▁evid	-2210
▁strategic	-2211
ground	-2212
izes	-2213
▁nature	-2214
▁game	-2215
▁production	-2216
ница	-2217
▁look	-2218
▁expect	-2219
▁instit	-2220
сот	-2221
▁Ц	-2222
чка	-2223
ites	-2224
▁light	-2225
▁Sim	-2226
▁То	-2227
▁Pre	-2228
шта	-2229
▁times	-2230
▁players	-2231
ute	-2232
▁Ph	-2233
▁toget	-2234
▁together	-2235
▁prec	-2236
uts	-2237
ended	-2238
▁tex	-2239
▁professional	-2240
▁narra	-2241
▁inv	-2242
▁higher	-2243
▁Sp	-2244
till	-2245
bility	-2246
▁harm	-2247
▁early	-2248
▁mess	-2249
▁types	-2250
▁share	-2251
▁III	-2252
▁requirements	-2253
▁determ	-2254
▁appropri	-2255
▁innovative	-2256
▁mat	-2257
њето	-2258
▁еден	-2259
▁behind	-2260
▁thems	-2261
▁themselves	-2262
▁upd	-2263
▁training	-2264
▁managing	-2265
▁balance	-2266
▁foot	-2267
▁companies	-2268
part	-2269
making	-2270
min	-2271
▁prevent	-2272
▁dive	-2273
▁robust	-2274
cri	-2275
▁зем	-2276
▁enabling	-2277
ците	-2278
enced	-2279
wh	-2280
▁ne	-2281
▁emer	-2282
atisf	-2283
▁compared	-2284
esting	-2285
▁thought	-2286
▁tas	-2287
just	-2288
ove	-2289
▁Пре	-2290
▁legal	-2291
вро	-2292
▁emotional	-2293
▁лу	-2294
pecial	-2295
eper	-2296
коп	-2297
ystem	-2298
▁reducing	-2299
tures	-2300
▁пос	-2301
▁preferences	-2302
▁Now	-2303
▁practice	-2304
▁known	-2305
▁er	-2306
▁cover	-2307
▁Me	-2308
▁culture	-2309
▁medical	-2310
▁сака	-2311
▁lies	-2312
ify	-2313
▁broader	-2314
areness	-2315
▁Prac	-2316
ension	-2317
▁progress	-2318
▁`	-2319
tle	-2320
▁оваа	-2321
▁bi	-2322
▁circ	-2323
▁ing	-2324
из	-2325
▁historical	-2326
▁adop	-2327
▁convers	-2328
ighting	-2329
▁Strateg	-2330
▁години	-2331
istance	-2332
▁appear	-2333
omen	-2334
▁period	-2335
▁spirit	-2336
iliar	-2337
“,	-2338
▁Last	-2339
▁right	-2340
▁interest	-2341
based	-2342
▁овој	-2343
▁analysis	-2344
sy	-2345
oms	-2346
▁поли	-2347
реди	-2348
play	-2349
tise	-2350
▁changes	-2351
▁alike	-2352
▁Per	-2353
▁pain	-2354
▁achieve	-2355
▁account	-2356
▁distin	-2357
▁confid	-2358
▁Se	-2359
▁camp	-2360
тар	-2361
▁costs	-2362
▁increasingly	-2363
tis	-2364
▁ran	-2365
▁VI	-2366
▁powerful	-2367
▁additional	-2368
▁една	-2369
▁preser	-2370
▁collec	-2371
▁stream	-2372
▁history	-2373
▁мож	-2374
▁дел	-2375
▁исто	-2376
▁application	-2377
▁orig	-2378
▁discover	-2379
ele	-2380
▁рабо	-2381
edi	-2382
▁significance	-2383
▁beg	-2384
▁Def	-2385
▁makes	-2386
раат	-2387
▁company	-2388
▁technologies	-2389
ск	-2390
▁draw	-2391
▁region	-2392
▁shaping	-2393
▁responsible	-2394
▁call	-2395
▁До	-2396
redi	-2397
ар	-2398
▁Am	-2399
▁mention	-2400
▁maxim	-2401
read	-2402
▁deeper	-2403
**:	-2404
▁optimal	-2405
▁construc	-2406
▁typically	-2407
ork	-2408
▁manufacturing	-2409
ules	-2410
▁behavior	-2411
▁software	-2412
сни	-2413
oph	-2414
▁amid	-2415
entic	-2416
▁eth	-2417
▁cy	-2418
мот	-2419
▁efficiency	-2420
let	-2421
▁langu	-2422
▁There	-2423
eck	-2424
▁IV	-2425
▁Market	-2426
вер	-2427
▁current	-2428
ју	-2429
▁challenging	-2430
▁steps	-2431
▁core	-2432
▁feed	-2433
der	-2434
▁works	-2435
▁пи	-2436
agn	-2437
ството	-2438
▁Ser	-2439
▁food	-2440
▁satisf	-2441
▁quick	-2442
▁strategy	-2443
▁approaches	-2444
▁sci	-2445
▁const	-2446
▁гла	-2447
нат	-2448
▁tru	-2449
▁pros	-2450
▁come	-2451
он	-2452
▁ongoing	-2453
▁vol	-2454
aste	-2455
▁list	-2456
ots	-2457
▁policies	-2458
▁resilience	-2459
▁then	-2460
му	-2461
▁shif	-2462
▁she	-2463
▁since	-2464
▁Pol	-2465
ems	-2466
▁And	-2467
▁greater	-2468
ewel	-2469
▁flex	-2470
irt	-2471
side	-2472
▁teams	-2473
ife	-2474
▁rich	-2475
▁живот	-2476
▁lives	-2477
▁space	-2478
app	-2479
вод	-2480
▁tem	-2481
клу	-2482
▁According	-2483
▁existing	-2484
▁place	-2485
utical	-2486
▁tri	-2487
he	-2488
▁меѓу	-2489
▁exec	-2490
▁identify	-2491
▁contemporary	-2492
рга	-2493
▁environmental	-2494
▁dam	-2495
ѓе	-2496
▁conduc	-2497
amless	-2498
▁contain	-2499
▁monit	-2500
aceutical	-2501
▁Christian	-2502
бор	-2503
▁прод	-2504
ските	-2505
armaceutical	-2506
ender	-2507
urance	-2508
▁Sec	-2509
▁ver	-2510
лија	-2511
виот	-2512
sych	-2513
tivity	-2514
▁vari	-2515
▁ones	-2516
▁Su	-2517
▁deb	-2518
▁my	-2519
▁proble	-2520
ките	-2521
▁questions	-2522
ective	-2523
▁projects	-2524
▁Firstly	-2525
▁involve	-2526
ode	-2527
▁careful	-2528
јави	-2529
ibilities	-2530
oh	-2531
oth	-2532
▁vide	-2533
▁objec	-2534
▁Guid	-2535
▁clients	-2536
▁appropriate	-2537
▁Lastly	-2538
▁comprehensive	-2539
ouse	-2540
▁mom	-2541
▁ло	-2542
itch	-2543
▁skin	-2544
ds	-2545
▁rig	-2546
▁inj	-2547
▁operations	-2548
▁directly	-2549
▁som	-2550
▁refers	-2551
▁Enc	-2552
iving	-2553
▁forms	-2554
ived	-2555
▁така	-2556
▁sw	-2557
akes	-2558
▁primary	-2559
▁past	-2560
ray	-2561
ours	-2562
▁action	-2563
▁much	-2564
▁seamless	-2565
▁environments	-2566
aign	-2567
▁three	-2568
▁Но	-2569
quality	-2570
рој	-2571
▁organization	-2572
▁Inst	-2573
▁position	-2574
▁consistent	-2575
aster	-2576
isms	-2577
▁standards	-2578
▁subst	-2579
форма	-2580
▁roles	-2581
▁над	-2582
vention	-2583
▁docu	-2584
ан	-2585
ipment	-2586
▁author	-2587
su	-2588
utes	-2589
▁expand	-2590
orm	-2591
▁Де	-2592
▁vi	-2593
▁advance	-2594
▁aimed	-2595
▁македо	-2596
▁political	-2597
aged	-2598
cepts	-2599
▁promote	-2600
▁cultiv	-2601
▁improved	-2602
▁potentially	-2603
▁run	-2604
▁showc	-2605
icated	-2606
▁secure	-2607
▁Ве	-2608
шата	-2609
▁доби	-2610
тни	-2611
▁identi	-2612
▁initiatives	-2613
▁avoid	-2614
▁project	-2615
▁adjust	-2616
ustr	-2617
▁arts	-2618
encing	-2619
▁sharing	-2620
ole	-2621
▁reach	-2622
▁embracing	-2623
ол	-2624
iance	-2625
▁lit	-2626
▁chann	-2627
▁Скоп	-2628
▁examining	-2629
▁continue	-2630
▁examine	-2631
▁emerg	-2632
▁implications	-2633
▁path	-2634
говор	-2635
ewelry	-2636
akehold	-2637
know	-2638
▁After	-2639
дра	-2640
▁cut	-2641
▁educational	-2642
oor	-2643
▁expertise	-2644
arily	-2645
ternal	-2646
▁instead	-2647
▁lever	-2648
▁Bl	-2649
ran	-2650
▁capabilities	-2651
▁sum	-2652
▁ways	-2653
▁amidst	-2654
ativity	-2655
▁compl	-2656
стап	-2657
ugg	-2658
af	-2659
роти	-2660
▁пат	-2661
▁sing	-2662
▁ав	-2663
▁still	-2664
▁Rem	-2665
▁solid	-2666
ered	-2667
▁required	-2668
rant	-2669
▁rele	-2670
▁family	-2671
▁star	-2672
сија	-2673
face	-2674
▁comfort	-2675
orough	-2676
кува	-2677
▁Med	-2678
▁search	-2679
▁Case	-2680
▁sources	-2681
int	-2682
▁Inter	-2683
▁pred	-2684
▁wr	-2685
▁луѓе	-2686
▁devices	-2687
▁mer	-2688
▁demand	-2689
eration	-2690
▁Eff	-2691
▁American	-2692
▁qual	-2693
hic	-2694
▁Such	-2695
▁good	-2696
▁possible	-2697
ides	-2698
▁bas	-2699
▁therap	-2700
ething	-2701
▁ingredi	-2702
тно	-2703
▁држа	-2704
▁mentioned	-2705
force	-2706
▁Id	-2707
▁hol	-2708
ene	-2709
place	-2710
ified	-2711
вна	-2712
▁Section	-2713
▁bar	-2714
▁means	-2715
▁policy	-2716
▁Sc	-2717
▁New	-2718
▁expos	-2719
emic	-2720
▁dial	-2721
▁navigate	-2722
▁terms	-2723
▁fram	-2724
▁Par	-2725
▁near	-2726
▁event	-2727
▁refer	-2728
лните	-2729
▁Ме	-2730
▁review	-2731
▁function	-2732
inking	-2733
▁advanced	-2734
▁short	-2735
▁напра	-2736
▁were	-2737
▁орга	-2738
fect	-2739
ниците	-2740
▁related	-2741
▁age	-2742
работ	-2743
aily	-2744
▁Да	-2745
▁something	-2746
anti	-2747
леми	-2748
▁opportunity	-2749
▁Whether	-2750
den	-2751
▁ec	-2752
▁Trans	-2753
тел	-2754
▁оста	-2755
▁работи	-2756
▁sound	-2757
▁settings	-2758
ox	-2759
▁looking	-2760
▁exerc	-2761
▁clean	-2762
▁engine	-2763
▁treatment	-2764
pass	-2765
▁worth	-2766
uty	-2767
▁expectations	-2768
pecially	-2769
▁highlights	-2770
▁Design	-2771
orous	-2772
▁cry	-2773
▁Ви	-2774
дува	-2775
леда	-2776
нскиот	-2777
▁reput	-2778
▁stakehold	-2779
▁hy	-2780
▁evidence	-2781
▁Скопје	-2782
az	-2783
▁proced	-2784
лови	-2785
стве	-2786
▁Commun	-2787
▁points	-2788
hes	-2789
▁remember	-2790
▁enable	-2791
▁уште	-2792
▁тој	-2793
▁ча	-2794
▁purch	-2795
▁bound	-2796
▁Encoura	-2797
▁relationship	-2798
pid	-2799
▁groups	-2800
▁hold	-2801
лата	-2802
▁don	-2803
▁cater	-2804
▁authentic	-2805
▁transpar	-2806
usive	-2807
▁free	-2808
▁cross	-2809
▁transport	-2810
▁especially	-2811
▁campaign	-2812
ooth	-2813
▁Од	-2814
▁appreciation	-2815
▁developing	-2816
бата	-2817
▁details	-2818
▁bu	-2819
▁implementing	-2820
▁context	-2821
ounts	-2822
itig	-2823
гла	-2824
▁studies	-2825
▁having	-2826
▁cal	-2827
▁record	-2828
tenance	-2829
ote	-2830
ision	-2831
▁body	-2832
▁ground	-2833
aff	-2834
▁scenari	-2835
▁meaningful	-2836
▁contributing	-2837
▁begin	-2838
▁awareness	-2839
▁intricate	-2840
▁person	-2841
▁consumers	-2842
▁пар	-2843
▁работа	-2844
▁connection	-2845
▁capable	-2846
usi	-2847
itable	-2848
▁Cre	-2849
▁НА	-2850
hood	-2851
▁##	-2852
ok	-2853
aim	-2854
глед	-2855
▁audiences	-2856
чен	-2857
▁mach	-2858
ishing	-2859
▁frequ	-2860
wide	-2861
▁же	-2862
▁privacy	-2863
▁influence	-2864
▁ste	-2865
они	-2866
▁Ins	-2867
▁here	-2868
▁head	-2869
▁language	-2870
esthe	-2871
ope	-2872
▁вла	-2873
▁property	-2874
рани	-2875
▁alternative	-2876
▁daily	-2877
▁finding	-2878
▁resid	-2879
cle	-2880
ulations	-2881
▁hard	-2882
дот	-2883
▁feature	-2884
дни	-2885
▁lik	-2886
▁thorough	-2887
▁large	-2888
▁offering	-2889
world	-2890
▁fri	-2891
▁fa	-2892
▁equipment	-2893
▁inspir	-2894
▁low	-2895
▁institutions	-2896
▁stakeholders	-2897
▁thereby	-2898
▁advantages	-2899
▁improvement	-2900
▁Us	-2901
▁resulting	-2902
▁concepts	-2903
▁Personal	-2904
▁посе	-2905
▁heart	-2906
being	-2907
▁respect	-2908
▁dialog	-2909
▁сте	-2910
шиот	-2911
minist	-2912
▁background	-2913
▁Op	-2914
зни	-2915
▁reduce	-2916
▁Some	-2917
▁vehic	-2918
veness	-2919
▁органи	-2920
▁sustainable	-2921
▁Ра	-2922
rec	-2923
pected	-2924
▁obser	-2925
▁line	-2926
шите	-2927
▁patients	-2928
▁права	-2929
▁society	-2930
▁чи	-2931
▁phot	-2932
▁interests	-2933
hib	-2934
▁channels	-2935
▁tasks	-2936
ifying	-2937
▁protection	-2938
▁creativity	-2939
▁taking	-2940
▁conflic	-2941
▁structure	-2942
▁уче	-2943
acking	-2944
▁stress	-2945
▁ge	-2946
▁pa	-2947
▁patient	-2948
рика	-2949
▁cred	-2950
▁indic	-2951
pped	-2952
чува	-2953
aches	-2954
▁acqu	-2955
▁pharmaceutical	-2956
▁itself	-2957
orn	-2958
▁Co	-2959
▁Health	-2960
▁despite	-2961
▁area	-2962
▁Is	-2963
plement	-2964
▁mob	-2965
▁rigorous	-2966
ident	-2967
ticip	-2968
▁response	-2969
▁continuous	-2970
“.	-2971
sc	-2972
▁always	-2973
▁established	-2974
active	-2975
дар	-2976
нската	-2977
uilding	-2978
▁closer	-2979
▁jewelry	-2980
ief	-2981
▁psych	-2982
▁illustr	-2983
▁Мо	-2984
▁truly	-2985
▁har	-2986
кс	-2987
▁involving	-2988
▁faced	-2989
вет	-2990
pr	-2991
▁inher	-2992
▁living	-2993
ah	-2994
▁website	-2995
▁mis	-2996
rics	-2997
not	-2998
▁piece	-2999
ржи	-3000
▁models	-3001
▁$	-3002
▁rights	-3003
▁location	-3004
▁threat	-3005
▁sets	-3006
дата	-3007
▁Mod	-3008
pose	-3009
▁however	-3010
стите	-3011
▁day	-3012
cipl	-3013
irm	-3014
▁Eng	-3015
јте	-3016
▁fail	-3017
вор	-3018
▁requiring	-3019
▁parties	-3020
▁experienced	-3021
▁sense	-3022
▁investment	-3023
ври	-3024
uter	-3025
▁express	-3026
вие	-3027
▁creative	-3028
▁youn	-3029
ops	-3030
▁get	-3031
ux	-3032
▁_	-3033
▁competitive	-3034
тоа	-3035
epend	-3036
▁perfect	-3037
▁произ	-3038
eless	-3039
▁limit	-3040
▁career	-3041
▁log	-3042
▁spe	-3043
▁match	-3044
▁преку	-3045
▁reve	-3046
ribution	-3047
eral	-3048
▁rapid	-3049
▁ren	-3050
▁now	-3051
▁lower	-3052
▁entire	-3053
▁High	-3054
▁aesthe	-3055
▁guidelines	-3056
▁cell	-3057
▁Each	-3058
▁range	-3059
▁next	-3060
▁excell	-3061
▁Similar	-3062
▁fasc	-3063
▁stories	-3064
▁ann	-3065
▁install	-3066
▁cele	-3067
▁satisfaction	-3068
▁initial	-3069
though	-3070
нер	-3071
▁pack	-3072
▁alongside	-3073
ulner	-3074
istics	-3075
▁потре	-3076
рана	-3077
enses	-3078
▁turn	-3079
▁active	-3080
▁ду	-3081
▁type	-3082
▁loss	-3083
▁ос	-3084
▁recomm	-3085
лоб	-3086
▁Development	-3087
▁Z	-3088
▁appreciate	-3089
▁Despite	-3090
utri	-3091
▁spiritual	-3092
outh	-3093
put	-3094
tiveness	-3095
▁full	-3096
▁developers	-3097
ude	-3098
compass	-3099
▁air	-3100
▁каде	-3101
ator	-3102
irtual	-3103
▁Како	-3104
▁visit	-3105
▁him	-3106
ду	-3107
фа	-3108
▁Hist	-3109
▁Go	-3110
нови	-3111
▁Its	-3112
▁wa	-3113
▁вра	-3114
▁sugges	-3115
▁functionality	-3116
agine	-3117
▁feedback	-3118
▁resol	-3119
▁improving	-3120
▁possess	-3121
▁aspir	-3122
▁integration	-3123
▁свет	-3124
▁Implement	-3125
urb	-3126
▁dom	-3127
head	-3128
▁emerging	-3129
▁Once	-3130
osp	-3131
▁prepar	-3132
▁resource	-3133
седа	-3134
▁Consequ	-3135
нк	-3136
▁dur	-3137
ел	-3138
etal	-3139
▁evolving	-3140
бу	-3141
реш	-3142
▁manage	-3143
▁Tod	-3144
▁reduced	-3145
▁Ev	-3146
▁external	-3147
▁love	-3148
▁sales	-3149
▁investig	-3150
ged	-3151
come	-3152
▁Ни	-3153
▁Sch	-3154
ront	-3155
▁Ја	-3156
▁подо	-3157
me	-3158
▁Study	-3159
▁host	-3160
itness	-3161
▁worldwide	-3162
acts	-3163
igence	-3164
▁super	-3165
▁navigating	-3166
resh	-3167
▁face	-3168
▁Identif	-3169
▁heav	-3170
гот	-3171
atively	-3172
ump	-3173
▁artists	-3174
▁single	-3175
▁tre	-3176
▁dynamics	-3177
ule	-3178
▁arch	-3179
▁actions	-3180
▁season	-3181
▁strugg	-3182
▁artis	-3183
▁economic	-3184
▁color	-3185
▁represents	-3186
▁prioriti	-3187
сла	-3188
▁themes	-3189
▁structures	-3190
▁desired	-3191
▁plans	-3192
▁benefit	-3193
▁претста	-3194
▁choices	-3195
▁пов	-3196
ience	-3197
▁unders	-3198
ultane	-3199
▁Their	-3200
▁Бо	-3201
▁посто	-3202
land	-3203
▁break	-3204
▁enth	-3205
ification	-3206
▁government	-3207
▁colle	-3208
▁properties	-3209
тро	-3210
man	-3211
▁tac	-3212
▁syn	-3213
▁exploration	-3214
▁Regular	-3215
ротив	-3216
avors	-3217
▁Today	-3218
bers	-3219
рат	-3220
▁enhanced	-3221
ultural	-3222
structure	-3223
▁полити	-3224
▁sl	-3225
ished	-3226
▁driving	-3227
▁Strategies	-3228
▁identity	-3229
▁dest	-3230
tically	-3231
▁mechanisms	-3232
▁одно	-3233
▁Wor	-3234
▁unc	-3235
▁interactions	-3236
▁maintenance	-3237
▁Off	-3238
▁око	-3239
▁param	-3240
▁job	-3241
▁Сите	-3242
rep	-3243
ause	-3244
▁recip	-3245
▁excep	-3246
▁usage	-3247
циона	-3248
бро	-3249
▁leadership	-3250
▁Est	-3251
ellow	-3252
▁topics	-3253
▁away	-3254
мина	-3255
▁vulner	-3256
▁challenge	-3257
▁tool	-3258
esearch	-3259
▁dise	-3260
▁Educ	-3261
блика	-3262
athy	-3263
oming	-3264
▁circum	-3265
akers	-3266
▁Ultimately	-3267
cer	-3268
▁z	-3269
▁pursu	-3270
▁considerations	-3271
▁guidance	-3272
▁versati	-3273
▁mut	-3274
oud	-3275
▁player	-3276
▁far	-3277
▁isn	-3278
apter	-3279
illing	-3280
auty	-3281
▁зае	-3282
jor	-3283
▁fosters	-3284
▁regulations	-3285
ables	-3286
▁enthusi	-3287
ressive	-3288
▁war	-3289
▁Adv	-3290
▁underlying	-3291
▁objectives	-3292
▁compos	-3293
▁opp	-3294
▁distinct	-3295
▁motiv	-3296
▁selecting	-3297
▁encompass	-3298
▁video	-3299
▁children	-3300
▁Util	-3301
io	-3302
ography	-3303
▁dedicated	-3304
▁ingredients	-3305
▁Research	-3306
▁Analy	-3307
▁Евро	-3308
▁sched	-3309
▁Your	-3310
▁boundaries	-3311
▁investing	-3312
cing	-3313
▁dynamic	-3314
▁фа	-3315
▁фу	-3316
▁advent	-3317
▁reson	-3318
▁Ва	-3319
atter	-3320
тура	-3321
мет	-3322
▁Consequently	-3323
▁flexibility	-3324
▁onto	-3325
пот	-3326
▁providers	-3327
▁effects	-3328
ул	-3329
▁Ч	-3330
▁networks	-3331
▁group	-3332
▁simple	-3333
▁considering	-3334
ensions	-3335
▁Про	-3336
▁Business	-3337
▁immers	-3338
▁Rep	-3339
▁advancements	-3340
др	-3341
inition	-3342
▁Te	-3343
▁procedures	-3344
▁gather	-3345
▁pressure	-3346
alls	-3347
ultaneously	-3348
▁encourages	-3349
▁кај	-3350
▁advers	-3351
▁integrating	-3352
,"	-3353
▁advoc	-3354
сна	-3355
▁return	-3356
ства	-3357
лади	-3358
▁Те	-3359
ове	-3360
▁cand	-3361
eling	-3362
▁apart	-3363
▁Mon	-3364
▁red	-3365
▁сред	-3366
▁efficient	-3367
▁necessit	-3368
▁dialogue	-3369
▁cutting	-3370
▁Imp	-3371
▁port	-3372
orage	-3373
▁undersc	-3374
rastructure	-3375
▁Similarly	-3376
▁favor	-3377
▁Го	-3378
чин	-3379
acity	-3380
aun	-3381
lier	-3382
fic	-3383
▁etc	-3384
▁analyzing	-3385
onds	-3386
▁vib	-3387
▁fascinating	-3388
ank	-3389
▁section	-3390
стој	-3391
vation	-3392
ring	-3393
вме	-3394
ably	-3395
▁Overview	-3396
."	-3397
▁vary	-3398
▁Import	-3399
▁тие	-3400
▁You	-3401
▁нас	-3402
aced	-3403
чите	-3404
▁Би	-3405
overy	-3406
▁Le	-3407
▁toward	-3408
▁facilitate	-3409
ird	-3410
▁compet	-3411
▁minimizing	-3412
alle	-3413
eter	-3414
fford	-3415
▁flow	-3416
▁инте	-3417
▁test	-3418
лат	-3419
▁temper	-3420
▁consumer	-3421
▁issue	-3422
▁mitig	-3423
▁ако	-3424
▁sect	-3425
▁Marketing	-3426
▁Finally	-3427
▁previous	-3428
▁cer	-3429
▁acad	-3430
▁sus	-3431
▁appeal	-3432
rig	-3433
aving	-3434
▁Exper	-3435
use	-3436
▁Before	-3437
нието	-3438
▁rout	-3439
▁transparency	-3440
thing	-3441
▁pieces	-3442
▁framew	-3443
iles	-3444
цата	-3445
▁Management	-3446
нете	-3447
ails	-3448
▁until	-3449
▁помо	-3450
mit	-3451
▁forward	-3452
▁exch	-3453
▁###	-3454
▁ден	-3455
▁technical	-3456
turing	-3457
uries	-3458
▁exposure	-3459
▁suff	-3460
▁Са	-3461
▁нови	-3462
▁talent	-3463
ТО	-3464
▁situations	-3465
▁mill	-3466
▁Ова	-3467
▁circumst	-3468
pectives	-3469
▁familiar	-3470
гија	-3471
▁faith	-3472
▁handling	-3473
▁dim	-3474
ingly	-3475
▁attrac	-3476
▁quickly	-3477
▁audience	-3478
▁Remember	-3479
ios	-3480
▁Disc	-3481
▁adher	-3482
oad	-3483
eline	-3484
ony	-3485
▁compati	-3486
coming	-3487
▁young	-3488
▁abilities	-3489
▁Therefore	-3490
▁style	-3491
gra	-3492
стер	-3493
▁document	-3494
▁games	-3495
▁ethical	-3496
▁contributes	-3497
▁System	-3498
▁tour	-3499
како	-3500
▁број	-3501
зија	-3502
мата	-3503
▁technological	-3504
▁Collabor	-3505
onom	-3506
▁bud	-3507
▁thri	-3508
ев	-3509
▁consideration	-3510
▁X	-3511
▁minimize	-3512
▁информа	-3513
▁damage	-3514
▁други	-3515
▁point	-3516
тори	-3517
▁Power	-3518
▁presence	-3519
ik	-3520
▁administ	-3521
ceed	-3522
▁carefully	-3523
▁outs	-3524
▁prep	-3525
▁everyone	-3526
ronic	-3527
▁accom	-3528
ommod	-3529
▁сту	-3530
▁football	-3531
▁accommod	-3532
▁elev	-3533
вање	-3534
▁creation	-3535
▁narratives	-3536
▁anti	-3537
work	-3538
▁infrastructure	-3539
▁wellbeing	-3540
reen	-3541
▁beauty	-3542
▁страна	-3543
oyal	-3544
▁demands	-3545
▁supporting	-3546
▁inherent	-3547
оп	-3548
▁бидат	-3549
▁прое	-3550
▁guide	-3551
inations	-3552
ient	-3553
ристи	-3554
▁artic	-3555
essions	-3556
▁circumstances	-3557
шка	-3558
▁smooth	-3559
icient	-3560
цен	-3561
▁concer	-3562
лек	-3563
iment	-3564
▁encounter	-3565
▁spaces	-3566
▁monitoring	-3567
▁primarily	-3568
▁interpre	-3569
▁effort	-3570
▁true	-3571
▁base	-3572
дени	-3573
ffic	-3574
acies	-3575
▁cases	-3576
▁stability	-3577
публика	-3578
▁acknow	-3579
вниот	-3580
itation	-3581
▁substanti	-3582
▁Ин	-3583
▁insp	-3584
endly	-3585
▁Data	-3586
ardless	-3587
▁clin	-3588
▁doing	-3589
▁Та	-3590
▁oil	-3591
▁crypt	-3592
ifies	-3593
нска	-3594
▁nu	-3595
iversity	-3596
▁increase	-3597
▁demonstrate	-3598
▁праша	-3599
▁Importance	-3600
▁relig	-3601
taining	-3602
▁empowerment	-3603
itiz	-3604
agnos	-3605
▁realm	-3606
ското	-3607
▁block	-3608
▁designs	-3609
▁ey	-3610
ured	-3611
▁transportation	-3612
ulate	-3613
empl	-3614
▁collective	-3615
▁sustainability	-3616
▁once	-3617
issions	-3618
ls	-3619
▁Cent	-3620
▁Rel	-3621
▁network	-3622
dom	-3623
illed	-3624
▁доде	-3625
▁specialized	-3626
crib	-3627
▁Dis	-3628
▁против	-3629
esty	-3630
val	-3631
ills	-3632
ror	-3633
▁needed	-3634
):	-3635
▁Up	-3636
▁depending	-3637
venue	-3638
▁win	-3639
itect	-3640
acters	-3641
▁stat	-3642
▁Tips	-3643
▁exceptional	-3644
▁Role	-3645
▁anim	-3646
ster	-3647
▁кри	-3648
gment	-3649
▁staff	-3650
oti	-3651
rist	-3652
▁i	-3653
▁instruc	-3654
▁Analysis	-3655
▁fundament	-3656
ton	-3657
▁две	-3658
▁земј	-3659
riers	-3660
▁safe	-3661
▁наста	-3662
▁notable	-3663
▁introduc	-3664
▁Ру	-3665
▁immedi	-3666
▁major	-3667
▁пока	-3668
▁sports	-3669
▁categ	-3670
ups	-3671
мени	-3672
▁counter	-3673
▁His	-3674
▁discussions	-3675
▁seek	-3676
▁markets	-3677
▁candid	-3678
▁constit	-3679
▁јази	-3680
gen	-3681
▁tax	-3682
▁...	-3683
▁rein	-3684
apes	-3685
▁great	-3686
▁секој	-3687
oney	-3688
▁novel	-3689
спо	-3690
▁Instead	-3691
▁alloc	-3692
▁limited	-3693
▁items	-3694
▁belief	-3695
▁few	-3696
▁граѓа	-3697
▁viol	-3698
▁bur	-3699
auti	-3700
▁exciting	-3701
▁успе	-3702
rug	-3703
▁problem	-3704
▁чове	-3705
▁size	-3706
ek	-3707
▁simultaneously	-3708
ither	-3709
tition	-3710
▁easy	-3711
▁воз	-3712
▁earlier	-3713
▁consequ	-3714
▁mix	-3715
▁afford	-3716
▁preserving	-3717
ina	-3718
med	-3719
▁intell	-3720
▁Sk	-3721
▁foundation	-3722
▁Inc	-3723
▁touch	-3724
▁manufactur	-3725
▁regulatory	-3726
▁Building	-3727
rich	-3728
riter	-3729
▁меди	-3730
▁имаат	-3731
▁industries	-3732
▁arg	-3733
▁offered	-3734
▁learners	-3735
▁Република	-3736
urop	-3737
▁separ	-3738
▁vo	-3739
▁utilizing	-3740
▁exist	-3741
ID	-3742
▁term	-3743
нските	-3744
▁vac	-3745
▁Па	-3746
▁sil	-3747
▁extra	-3748
▁women	-3749
рно	-3750
▁What	-3751
▁shape	-3752
▁accordingly	-3753
ened	-3754
▁accurate	-3755
ann	-3756
▁акти	-3757
▁month	-3758
▁најдо	-3759
воз	-3760
▁сп	-3761
▁functions	-3762
▁independ	-3763
▁celebr	-3764
▁Intern	-3765
вните	-3766
▁три	-3767
▁politics	-3768
▁therapy	-3769
▁final	-3770
▁compelling	-3771
▁partnerships	-3772
▁lines	-3773
▁artistic	-3774
▁sensitive	-3775
▁nutri	-3776
▁watch	-3777
▁comprom	-3778
▁Pres	-3779
▁teach	-3780
urch	-3781
▁remind	-3782
▁growing	-3783
▁ла	-3784
▁проб	-3785
▁околу	-3786
▁неколку	-3787
icians	-3788
▁sole	-3789
мерика	-3790
▁dedication	-3791
▁Pri	-3792
шува	-3793
tt	-3794
▁updates	-3795
▁таа	-3796
▁virtual	-3797
▁highly	-3798
кри	-3799
▁vs	-3800
▁Tim	-3801
▁прија	-3802
ман	-3803
▁cat	-3804
iors	-3805
▁nor	-3806
▁societal	-3807
▁original	-3808
▁Lear	-3809
ход	-3810
▁practical	-3811
ades	-3812
▁Spec	-3813
▁scenarios	-3814
▁Integr	-3815
▁identifying	-3816
uing	-3817
▁Prog	-3818
▁ап	-3819
amm	-3820
▁fu	-3821
колку	-3822
▁claim	-3823
НИ	-3824
▁regional	-3825
▁insurance	-3826
чката	-3827
▁healthy	-3828
▁fully	-3829
сен	-3830
▁achieving	-3831
▁empathy	-3832
▁Guidelines	-3833
▁crim	-3834
▁perspectives	-3835
▁Examples	-3836
▁choosing	-3837
▁кое	-3838
▁hon	-3839
▁config	-3840
▁gained	-3841
ids	-3842
▁тр	-3843
volution	-3844
chain	-3845
▁symb	-3846
▁Bal	-3847
▁reflec	-3848
▁participants	-3849
▁internal	-3850
▁seemingly	-3851
▁given	-3852
▁stage	-3853
▁testing	-3854
▁encouraging	-3855
▁larger	-3856
▁styles	-3857
▁parts	-3858
▁Definition	-3859
▁lessons	-3860
▁storage	-3861
▁encourage	-3862
▁selection	-3863
▁arr	-3864
▁liter	-3865
▁Ob	-3866
▁Из	-3867
ква	-3868
▁Main	-3869
▁diffic	-3870
▁thinking	-3871
▁Mus	-3872
▁Add	-3873
▁confidence	-3874
▁complexity	-3875
telling	-3876
▁responsibility	-3877
▁aims	-3878
бри	-3879
▁едно	-3880
▁Пе	-3881
▁track	-3882
▁simpl	-3883
▁cris	-3884
▁owners	-3885
like	-3886
▁depth	-3887
▁campaigns	-3888
▁activity	-3889
//	-3890
▁fig	-3891
▁characters	-3892
лната	-3893
▁дена	-3894
▁consequences	-3895
▁crafts	-3896
▁Applic	-3897
bo	-3898
АД	-3899
▁examination	-3900
▁credit	-3901
ке	-3902
драв	-3903
▁Although	-3904
---	-3905
бар	-3906
▁someone	-3907
▁крај	-3908
▁Impact	-3909
lation	-3910
▁same	-3911
▁Navig	-3912
▁because	-3913
лизи	-3914
▁знае	-3915
▁presents	-3916
▁capacity	-3917
ifications	-3918
tr	-3919
▁integrity	-3920
▁запо	-3921
▁propos	-3922
▁ст	-3923
▁sessions	-3924
ват	-3925
ributions	-3926
▁accessibility	-3927
▁цел	-3928
војот	-3929
mar	-3930
▁processing	-3931
▁след	-3932
▁Del	-3933
▁warm	-3934
▁complete	-3935
рам	-3936
вната	-3937
fulness	-3938
▁Effective	-3939
▁Example	-3940
▁ours	-3941
пла	-3942
▁ath	-3943
▁delivering	-3944
▁happ	-3945
ocurr	-3946
▁Not	-3947
▁авто	-3948
▁Ба	-3949
onic	-3950
▁exhib	-3951
▁abs	-3952
РО	-3953
▁Custom	-3954
▁зад	-3955
кра	-3956
▁ideal	-3957
icious	-3958
▁Gen	-3959
▁осно	-3960
▁includes	-3961
uting	-3962
▁prem	-3963
▁reliable	-3964
▁employees	-3965
▁nur	-3966
▁highlighting	-3967
ift	-3968
▁светот	-3969
▁genu	-3970
▁enhances	-3971
▁дол	-3972
голем	-3973
ген	-3974
▁During	-3975
▁capital	-3976
▁had	-3977
▁famil	-3978
icit	-3979
несе	-3980
▁highlight	-3981
▁При	-3982
▁solely	-3983
▁loyal	-3984
une	-3985
▁weak	-3986
iction	-3987
▁mast	-3988
▁clim	-3989
▁substantial	-3990
неш	-3991
▁compliance	-3992
▁vibrant	-3993
▁overl	-3994
gest	-3995
мена	-3996
▁gold	-3997
носта	-3998
▁Establish	-3999
owers	-4000
▁component	-4001
▁emotions	-4002
▁претседа	-4003
▁po	-4004
јзи	-4005
▁бу	-4006
▁staying	-4007
▁harness	-4008
▁affecting	-4009
▁mic	-4010
lines	-4011
▁Christ	-4012
▁cam	-4013
▁client	-4014
▁име	-4015
▁school	-4016
▁protect	-4017
▁live	-4018
▁dr	-4019
▁ranging	-4020
arant	-4021
▁United	-4022
▁chapter	-4023
ects	-4024
▁обја	-4025
egu	-4026
▁private	-4027
▁demonstrates	-4028
▁Art	-4029
iring	-4030
▁овие	-4031
▁Ag	-4032
▁model	-4033
▁yield	-4034
▁push	-4035
▁веќе	-4036
▁constant	-4037
bs	-4038
▁source	-4039
▁tend	-4040
▁реги	-4041
times	-4042
▁mere	-4043
▁equi	-4044
ruit	-4045
ager	-4046
▁ourselves	-4047
▁Perform	-4048
ume	-4049
▁програ	-4050
urope	-4051
▁alternatives	-4052
▁Fl	-4053
aming	-4054
▁belie	-4055
▁performing	-4056
idents	-4057
▁budget	-4058
▁Ди	-4059
▁Си	-4060
▁narrative	-4061
▁,	-4062
▁поради	-4063
▁weight	-4064
▁hab	-4065
▁four	-4066
▁hot	-4067
▁order	-4068
life	-4069
▁adding	-4070
▁Ke	-4071
▁Di	-4072
uccess	-4073
emp	-4074
▁changing	-4075
▁purpose	-4076
▁mutual	-4077
▁websites	-4078
▁closely	-4079
▁reflect	-4080
▁standard	-4081
▁choice	-4082
▁месе	-4083
▁generations	-4084
▁цр	-4085
нување	-4086
▁official	-4087
que	-4088
шки	-4089
▁adaptability	-4090
▁dat	-4091
▁excess	-4092
▁movement	-4093
▁friends	-4094
▁central	-4095
гата	-4096
ler	-4097
▁limitations	-4098
race	-4099
▁cop	-4100
orial	-4101
raf	-4102
▁Thus	-4103
дови	-4104
▁continues	-4105
orders	-4106
▁advantage	-4107
cent	-4108
▁choose	-4109
etary	-4110
gor	-4111
▁Typ	-4112
ised	-4113
pers	-4114
▁threats	-4115
edge	-4116
▁architect	-4117
▁Education	-4118
▁Have	-4119
▁Inves	-4120
нси	-4121
▁место	-4122
▁implementation	-4123
▁Tw	-4124
▁систе	-4125
EO	-4126
▁distribution	-4127
ung	-4128
▁diversity	-4129
▁Loc	-4130
▁anx	-4131
▁intricacies	-4132
▁fellow	-4133
▁Ear	-4134
▁offerings	-4135
▁ру	-4136
▁Ref	-4137
▁Exploring	-4138
▁Met	-4139
▁developments	-4140
нет	-4141
дба	-4142
▁два	-4143
▁operating	-4144
▁traffic	-4145
чај	-4146
▁analyze	-4147
▁computer	-4148
aken	-4149
▁фор	-4150
▁consistency	-4151
mk	-4152
▁dev	-4153
▁productivity	-4154
▁diss	-4155
▁отво	-4156
ogle	-4157
ains	-4158
▁unf	-4159
▁moments	-4160
лобод	-4161
▁chem	-4162
idden	-4163
▁consistently	-4164
▁impacts	-4165
▁agree	-4166
▁situation	-4167
▁Mar	-4168
▁Real	-4169
▁Europe	-4170
одржи	-4171
▁вели	-4172
бр	-4173
▁recognizing	-4174
▁boasts	-4175
▁report	-4176
▁thus	-4177
зда	-4178
mission	-4179
ply	-4180
▁дома	-4181
▁number	-4182
▁vast	-4183
▁positi	-4184
▁price	-4185
▁mor	-4186
▁email	-4187
▁apply	-4188
PI	-4189
pan	-4190
▁нау	-4191
▁competition	-4192
▁peace	-4193
ваат	-4194
чето	-4195
▁fair	-4196
▁receive	-4197
iety	-4198
▁leads	-4199
▁display	-4200
▁safegu	-4201
▁Set	-4202
▁Social	-4203
aturing	-4204
нима	-4205
anning	-4206
fri	-4207
▁друг	-4208
▁news	-4209
▁Dec	-4210
жите	-4211
ради	-4212
њата	-4213
▁outside	-4214
▁интер	-4215
вра	-4216
▁solution	-4217
▁оби	-4218
▁изве	-4219
▁speed	-4220
▁Produc	-4221
reg	-4222
▁Cho	-4223
▁Sol	-4224
▁diagnos	-4225
acing	-4226
▁користе	-4227
▁чу	-4228
poses	-4229
▁обе	-4230
▁Organ	-4231
uck	-4232
тија	-4233
▁surface	-4234
mental	-4235
▁бил	-4236
▁ју	-4237
▁protoc	-4238
▁збор	-4239
▁Char	-4240
gorith	-4241
▁estate	-4242
▁fear	-4243
▁ten	-4244
зен	-4245
▁writing	-4246
▁fundamental	-4247
▁пода	-4248
▁status	-4249
▁tactics	-4250
▁World	-4251
▁Success	-4252
▁Нај	-4253
јн	-4254
▁discipl	-4255
▁univers	-4256
▁Cle	-4257
▁cannot	-4258
▁disru	-4259
▁compatibility	-4260
▁Prot	-4261
▁promo	-4262
ТЕ	-4263
време	-4264
▁excellent	-4265
▁merely	-4266
▁ак	-4267
▁site	-4268
▁rew	-4269
▁jud	-4270
ТА	-4271
▁wond	-4272
▁wind	-4273
▁Care	-4274
лема	-4275
▁side	-4276
▁сто	-4277
udi	-4278
▁lasting	-4279
▁Access	-4280
▁cooking	-4281
▁goal	-4282
▁amb	-4283
▁focused	-4284
▁possibilities	-4285
▁повр	-4286
▁transformation	-4287
▁сега	-4288
▁barriers	-4289
▁readers	-4290
зација	-4291
▁buy	-4292
cious	-4293
way	-4294
assion	-4295
bre	-4296
▁prompt	-4297
ustice	-4298
▁leveraging	-4299
▁рез	-4300
▁цен	-4301
eyond	-4302
▁enthusiasts	-4303
otal	-4304
▁Car	-4305
▁serving	-4306
▁drive	-4307
рак	-4308
vision	-4309
▁either	-4310
▁Gl	-4311
arity	-4312
▁Emb	-4313
▁landscapes	-4314
ге	-4315
лка	-4316
▁Google	-4317
▁начин	-4318
▁qualities	-4319
▁било	-4320
▁consult	-4321
unning	-4322
▁purposes	-4323
▁додека	-4324
▁ahead	-4325
▁second	-4326
▁efficiently	-4327
▁Sm	-4328
▁guarant	-4329
▁разли	-4330
▁paramount	-4331
стри	-4332
formation	-4333
▁Ти	-4334
▁unex	-4335
set	-4336
▁Can	-4337
▁contra	-4338
▁artist	-4339
ressing	-4340
▁consumption	-4341
ister	-4342
лниот	-4343
▁expression	-4344
▁hours	-4345
вени	-4346
▁restric	-4347
▁assets	-4348
▁contact	-4349
▁waste	-4350
▁pric	-4351
▁Red	-4352
▁saving	-4353
lity	-4354
▁обра	-4355
▁lab	-4356
orship	-4357
▁нејзи	-4358
▁land	-4359
▁Leg	-4360
▁Navigating	-4361
icine	-4362
▁sympt	-4363
▁records	-4364
▁built	-4365
▁recommend	-4366
▁aspiring	-4367
nal	-4368
▁intelligence	-4369
▁attribut	-4370
▁democ	-4371
▁adds	-4372
▁differences	-4373
▁US	-4374
▁start	-4375
вување	-4376
▁breath	-4377
жат	-4378
▁delivery	-4379
iosity	-4380
нти	-4381
▁Ли	-4382
forcement	-4383
tivating	-4384
▁excl	-4385
▁inspiration	-4386
тна	-4387
▁mobile	-4388
▁Conn	-4389
сле	-4390
▁effectiveness	-4391
▁Prof	-4392
▁states	-4393
▁прави	-4394
▁Encouraging	-4395
ков	-4396
▁passion	-4397
▁entertain	-4398
▁beauti	-4399
▁recognition	-4400
oes	-4401
titude	-4402
▁мора	-4403
▁resistance	-4404
▁student	-4405
▁exact	-4406
ник	-4407
▁coun	-4408
▁characteristics	-4409
The	-4410
▁Beyond	-4411
▁завр	-4412
▁unw	-4413
▁brow	-4414
ret	-4415
▁old	-4416
▁своите	-4417
▁continued	-4418
жување	-4419
▁embod	-4420
pe	-4421
▁кул	-4422
▁бидејќи	-4423
faces	-4424
▁assistance	-4425
▁▁▁▁▁▁▁▁	-4426
▁things	-4427
osen	-4428
▁craft	-4429
astic	-4430
▁нат	-4431
зите	-4432
▁потреб	-4433
ximately	-4434
▁продол	-4435
▁intervention	-4436
▁Evalu	-4437
▁реа	-4438
▁stra	-4439
sequ	-4440
▁perspective	-4441
▁acknowled	-4442
▁International	-4443
onents	-4444
▁addition	-4445
▁want	-4446
▁Jes	-4447
▁enter	-4448
backs	-4449
▁bol	-4450
вар	-4451
▁Ens	-4452
стиг	-4453
▁поста	-4454
▁AI	-4455
▁recognize	-4456
ур	-4457
▁гру	-4458
ival	-4459
▁бр	-4460
▁families	-4461
▁intrig	-4462
▁storytelling	-4463
▁lux	-4464
▁prioritize	-4465
▁hor	-4466
▁transfer	-4467
мини	-4468
▁maximize	-4469
ticul	-4470
коно	-4471
▁Of	-4472
▁interpret	-4473
▁enrich	-4474
РА	-4475
asons	-4476
▁сре	-4477
▁algorith	-4478
▁national	-4479
▁periods	-4480
▁piv	-4481
▁одлу	-4482
▁Play	-4483
▁соп	-4484
▁code	-4485
▁ment	-4486
▁wal	-4487
▁name	-4488
▁concerning	-4489
ријата	-4490
▁според	-4491
▁religious	-4492
ohn	-4493
▁moment	-4494
ont	-4495
In	-4496
народ	-4497
rene	-4498
▁revenue	-4499
▁metrics	-4500
▁направи	-4501
des	-4502
▁живе	-4503
▁вер	-4504
▁responses	-4505
▁emphasizing	-4506
▁Бе	-4507
▁fra	-4508
orks	-4509
▁теле	-4510
▁laws	-4511
ows	-4512
▁citiz	-4513
while	-4514
ams	-4515
▁valid	-4516
▁tap	-4517
▁drug	-4518
▁corpor	-4519
▁competit	-4520
потре	-4521
▁mil	-4522
rel	-4523
▁Dr	-4524
▁Jesus	-4525
▁root	-4526
▁option	-4527
ww	-4528
▁својата	-4529
▁science	-4530
uff	-4531
ење	-4532
рата	-4533
▁curiosity	-4534
aks	-4535
▁Both	-4536
▁radi	-4537
▁series	-4538
три	-4539
▁matters	-4540
▁programming	-4541
nesses	-4542
▁link	-4543
▁strengths	-4544
▁мили	-4545
▁green	-4546
▁rate	-4547
нистер	-4548
▁credi	-4549
▁contributions	-4550
▁Challen	-4551
▁фина	-4552
▁mass	-4553
▁vision	-4554
nel	-4555
▁ро	-4556
ools	-4557
▁conversations	-4558
▁wis	-4559
▁lack	-4560
rors	-4561
кови	-4562
кто	-4563
▁conventional	-4564
▁behaviors	-4565
дете	-4566
▁coord	-4567
▁profound	-4568
тво	-4569
ott	-4570
▁evaluating	-4571
bon	-4572
▁analytics	-4573
▁Vis	-4574
▁impressive	-4575
▁smart	-4576
▁Fam	-4577
eted	-4578
▁crafting	-4579
ned	-4580
▁writ	-4581
▁describ	-4582
here	-4583
▁release	-4584
▁mark	-4585
тата	-4586
▁der	-4587
▁Qu	-4588
://	-4589
▁negoti	-4590
▁Common	-4591
▁лока	-4592
▁гледа	-4593
▁Techniques	-4594
▁rules	-4595
▁likely	-4596
▁facilities	-4597
▁employed	-4598
тува	-4599
▁hands	-4600
телот	-4601
▁cr	-4602
▁fields	-4603
▁unexpected	-4604
uality	-4605
ches	-4606
▁operational	-4607
inate	-4608
▁featuring	-4609
▁Спо	-4610
▁seen	-4611
▁Provid	-4612
▁mal	-4613
▁Implementing	-4614
▁question	-4615
▁heat	-4616
▁Public	-4617
eign	-4618
riteria	-4619
neys	-4620
▁room	-4621
▁disease	-4622
▁genuine	-4623
▁CO	-4624
▁applying	-4625
▁led	-4626
▁image	-4627
▁Applying	-4628
▁fans	-4629
▁countries	-4630
friendly	-4631
order	-4632
urg	-4633
▁Lever	-4634
▁chosen	-4635
чките	-4636
▁blog	-4637
pper	-4638
▁prote	-4639
▁ideas	-4640
▁соработ	-4641
▁Mean	-4642
▁cryptocurr	-4643
ventions	-4644
НА	-4645
ception	-4646
▁Бу	-4647
▁taken	-4648
▁examples	-4649
ин	-4650
▁anxiety	-4651
raints	-4652
▁adequ	-4653
cription	-4654
▁содржи	-4655
дин	-4656
▁нашата	-4657
▁meticul	-4658
▁нешто	-4659
▁exercise	-4660
▁lens	-4661
▁takes	-4662
▁момен	-4663
iciency	-4664
ians	-4665
▁cou	-4666
▁Assess	-4667
▁becoming	-4668
лува	-4669
▁Using	-4670
ires	-4671
▁shed	-4672
ooks	-4673
▁country	-4674
▁helping	-4675
▁All	-4676
▁certif	-4677
eli	-4678
▁gene	-4679
ари	-4680
ivity	-4681
▁род	-4682
▁positions	-4683
▁ге	-4684
▁above	-4685
▁pen	-4686
▁ки	-4687
▁creates	-4688
▁loans	-4689
▁fire	-4690
sh	-4691
▁protocols	-4692
▁Applications	-4693
▁цели	-4694
▁construction	-4695
▁dispar	-4696
жен	-4697
▁зако	-4698
▁Imagine	-4699
▁discussing	-4700
▁optimize	-4701
▁dental	-4702
▁soph	-4703
▁Mo	-4704
▁беа	-4705
дија	-4706
▁reduces	-4707
▁fit	-4708
▁agencies	-4709
▁Cal	-4710
▁пак	-4711
▁arrange	-4712
графи	-4713
▁tang	-4714
▁countless	-4715
▁remark	-4716
ствува	-4717
▁generate	-4718
▁пери	-4719
циите	-4720
▁able	-4721
▁Min	-4722
▁Throughout	-4723
▁influencing	-4724
▁accuracy	-4725
osystem	-4726
ognitive	-4727
▁hope	-4728
▁Practical	-4729
ulating	-4730
вуваат	-4731
јат	-4732
▁loyalty	-4733
▁sometimes	-4734
▁САД	-4735
▁That	-4736
▁accountability	-4737
▁film	-4738
рх	-4739
▁можете	-4740
▁frequently	-4741
▁metal	-4742
ma	-4743
▁pricing	-4744
▁deeply	-4745
▁компа	-4746
▁ше	-4747
▁regardless	-4748
▁equipped	-4749
▁sle	-4750
▁enough	-4751
рти	-4752
▁Ки	-4753
acles	-4754
▁истра	-4755
apeu	-4756
lined	-4757
▁city	-4758
▁ква	-4759
▁basic	-4760
▁matter	-4761
anship	-4762
ptions	-4763
▁Proper	-4764
▁participation	-4765
ublish	-4766
▁sophistic	-4767
▁close	-4768
▁биле	-4769
лото	-4770
inent	-4771
▁left	-4772
reprene	-4773
▁opening	-4774
▁пу	-4775
▁adver	-4776
мер	-4777
▁academic	-4778
▁ir	-4779
▁Ако	-4780
▁interaction	-4781
▁experiment	-4782
▁Af	-4783
несува	-4784
жба	-4785
▁third	-4786
▁appearance	-4787
▁eye	-4788
▁approximately	-4789
------------	-4790
ancy	-4791
▁натпре	-4792
▁Resp	-4793
▁можат	-4794
▁incorporate	-4795
▁configur	-4796
▁Benef	-4797
годи	-4798
▁National	-4799
▁condition	-4800
▁shift	-4801
▁doesn	-4802
▁Keep	-4803
▁entities	-4804
▁div	-4805
▁feelings	-4806
▁constraints	-4807
▁нави	-4808
▁иста	-4809
▁device	-4810
hy	-4811
▁minimal	-4812
▁blockchain	-4813
ads	-4814
▁positively	-4815
▁fresh	-4816
▁интере	-4817
▁negative	-4818
▁фил	-4819
▁culinary	-4820
бли	-4821
▁treatments	-4822
▁improvements	-4823
▁здрав	-4824
▁brands	-4825
▁expans	-4826
▁remarkable	-4827
▁varying	-4828
▁organizational	-4829
ени	-4830
▁establishing	-4831
лба	-4832
▁проце	-4833
▁suggests	-4834
▁demonstrating	-4835
usivity	-4836
▁compassion	-4837
▁VII	-4838
▁fast	-4839
▁еле	-4840
▁height	-4841
дите	-4842
▁sac	-4843
oke	-4844
убо	-4845
▁reputation	-4846
▁мај	-4847
power	-4848
▁instru	-4849
ales	-4850
▁vehicle	-4851
rid	-4852
▁text	-4853
▁occur	-4854
▁statis	-4855
део	-4856
▁tracking	-4857
▁collection	-4858
▁зе	-4859
▁тех	-4860
▁pivotal	-4861
rative	-4862
▁messages	-4863
▁memor	-4864
▁побе	-4865
▁credibility	-4866
▁кре	-4867
▁measure	-4868
▁exchange	-4869
▁hidden	-4870
▁thoughtful	-4871
onding	-4872
▁stages	-4873
▁manufacturers	-4874
когаш	-4875
▁fine	-4876
▁mort	-4877
▁Process	-4878
▁flavors	-4879
▁cultivate	-4880
▁facilitating	-4881
▁вашиот	-4882
▁citizens	-4883
▁сум	-4884
▁ecosystem	-4885
▁direc	-4886
▁demonstrated	-4887
▁labor	-4888
▁designing	-4889
▁поддр	-4890
▁No	-4891
збе	-4892
▁transl	-4893
▁лица	-4894
нати	-4895
▁врз	-4896
▁instances	-4897
▁preventing	-4898
▁fulf	-4899
▁weather	-4900
▁embrace	-4901
▁пома	-4902
▁некој	-4903
жно	-4904
▁=	-4905
▁starting	-4906
bor	-4907
airs	-4908
▁pan	-4909
улта	-4910
▁subsequ	-4911
inks	-4912
urban	-4913
▁Saf	-4914
▁клу	-4915
▁execution	-4916
▁rely	-4917
▁symptoms	-4918
▁mission	-4919
▁Embracing	-4920
▁cloud	-4921
entific	-4922
▁healing	-4923
▁called	-4924
▁hous	-4925
flow	-4926
▁Што	-4927
▁Historical	-4928
▁anticip	-4929
▁diving	-4930
▁combining	-4931
▁later	-4932
нка	-4933
▁Exp	-4934
▁visitors	-4935
ticing	-4936
рате	-4937
▁facing	-4938
ето	-4939
▁својот	-4940
▁sun	-4941
▁supply	-4942
меј	-4943
▁Aut	-4944
▁Fe	-4945
▁convenience	-4946
▁exempl	-4947
▁lat	-4948
yl	-4949
▁Back	-4950
▁check	-4951
▁performances	-4952
leg	-4953
orrow	-4954
▁injuries	-4955
▁Look	-4956
▁easily	-4957
▁repe	-4958
▁ample	-4959
▁висти	-4960
umb	-4961
▁cells	-4962
▁alone	-4963
▁transition	-4964
▁underscores	-4965
ai	-4966
▁difficult	-4967
▁perce	-4968
▁movements	-4969
▁delicate	-4970
▁governing	-4971
рид	-4972
▁/	-4973
▁lifesty	-4974
▁fix	-4975
▁John	-4976
▁injury	-4977
▁beliefs	-4978
ographic	-4979
▁transactions	-4980
ded	-4981
▁тек	-4982
тоци	-4983
ison	-4984
▁дали	-4985
ercial	-4986
▁cause	-4987
▁recovery	-4988
▁created	-4989
▁atm	-4990
▁сти	-4991
ellect	-4992
▁presented	-4993
cles	-4994
ubs	-4995
▁commercial	-4996
IV	-4997
▁Русија	-4998
▁изјави	-4999
ema	-5000
▁flavor	-5001
vey	-5002
▁did	-5003
wise	-5004
▁brings	-5005
▁visibility	-5006
▁accept	-5007
▁manip	-5008
manship	-5009
▁traditions	-5010
паѓа	-5011
▁files	-5012
▁јазик	-5013
▁income	-5014
▁appealing	-5015
``	-5016
▁Online	-5017
room	-5018
▁esc	-5019
▁layer	-5020
apeutic	-5021
odes	-5022
▁cultures	-5023
▁expert	-5024
▁frameworks	-5025
▁days	-5026
▁focuses	-5027
▁веб	-5028
дување	-5029
▁mid	-5030
▁practition	-5031
▁obst	-5032
▁stunning	-5033
▁производ	-5034
▁never	-5035
▁problems	-5036
ives	-5037
▁drawing	-5038
оѓа	-5039
▁Тоа	-5040
▁miss	-5041
▁populations	-5042
osph	-5043
▁resolution	-5044
▁expenses	-5045
itical	-5046
▁State	-5047
▁norms	-5048
▁затоа	-5049
▁findings	-5050
▁representation	-5051
▁note	-5052
izations	-5053
▁determine	-5054
пак	-5055
▁respond	-5056
▁heavily	-5057
ert	-5058
▁emergency	-5059
фика	-5060
▁justice	-5061
acting	-5062
▁caused	-5063
▁researchers	-5064
▁nurturing	-5065
▁attend	-5066
рни	-5067
▁информации	-5068
▁прода	-5069
▁reality	-5070
▁bring	-5071
▁coop	-5072
▁вклу	-5073
▁Benefits	-5074
▁cultivating	-5075
гледа	-5076
▁produce	-5077
▁rapidly	-5078
мври	-5079
haps	-5080
▁gender	-5081
▁interventions	-5082
ket	-5083
conn	-5084
ections	-5085
enders	-5086
▁house	-5087
▁голем	-5088
▁период	-5089
ако	-5090
▁competitors	-5091
▁holistic	-5092
▁Technology	-5093
▁inters	-5094
ags	-5095
▁technique	-5096
▁CB	-5097
▁chances	-5098
▁Considerations	-5099
▁vent	-5100
att	-5101
ils	-5102
▁mag	-5103
гри	-5104
▁задо	-5105
▁prove	-5106
▁га	-5107
▁outd	-5108
zz	-5109
▁adopting	-5110
отоа	-5111
▁firm	-5112
▁wide	-5113
▁climate	-5114
зво	-5115
гова	-5116
▁popularity	-5117
▁Ab	-5118
▁successfully	-5119
tu	-5120
rief	-5121
▁factor	-5122
▁durability	-5123
▁illustrate	-5124
▁sector	-5125
▁shar	-5126
▁States	-5127
▁table	-5128
▁Dem	-5129
▁relax	-5130
возмо	-5131
▁money	-5132
пад	-5133
▁algorithms	-5134
▁keeping	-5135
▁criteria	-5136
▁Nor	-5137
▁Challenges	-5138
▁initially	-5139
▁uses	-5140
off	-5141
book	-5142
▁hom	-5143
▁investors	-5144
▁Meanwhile	-5145
▁exactly	-5146
▁inten	-5147
▁file	-5148
▁distinc	-5149
▁college	-5150
штина	-5151
▁force	-5152
▁prop	-5153
▁Use	-5154
▁suggest	-5155
▁phen	-5156
itage	-5157
▁Compan	-5158
▁contrast	-5159
▁tack	-5160
▁immediate	-5161
чиња	-5162
▁inclusive	-5163
rin	-5164
mary	-5165
▁fall	-5166
▁hosp	-5167
▁candidates	-5168
▁ЗА	-5169
▁affected	-5170
▁remote	-5171
хо	-5172
▁.	-5173
ev	-5174
▁зашти	-5175
urning	-5176
неска	-5177
тира	-5178
▁aesthetics	-5179
пло	-5180
▁forces	-5181
▁experts	-5182
ВИ	-5183
▁fees	-5184
▁simply	-5185
▁capture	-5186
▁promising	-5187
▁еконо	-5188
NA	-5189
▁sure	-5190
▁позна	-5191
▁giving	-5192
▁рам	-5193
▁некои	-5194
▁discussion	-5195
▁Det	-5196
▁Specifically	-5197
ошто	-5198
▁urban	-5199
чко	-5200
▁chec	-5201
▁micro	-5202
▁blood	-5203
▁рече	-5204
▁туку	-5205
ocks	-5206
▁неде	-5207
▁purchasing	-5208
oub	-5209
icy	-5210
беле	-5211
▁uncertain	-5212
мите	-5213
▁clinical	-5214
▁unl	-5215
јде	-5216
▁graph	-5217
▁dealing	-5218
▁promotes	-5219
одо	-5220
▁conflicts	-5221
▁coll	-5222
▁висо	-5223
сите	-5224
▁Impro	-5225
▁Encourage	-5226
ститу	-5227
▁imag	-5228
▁witness	-5229
▁Her	-5230
▁civ	-5231
▁ende	-5232
▁изле	-5233
aunch	-5234
јот	-5235
▁Community	-5236
▁utilize	-5237
▁raw	-5238
ooked	-5239
▁neigh	-5240
▁bodies	-5241
▁colors	-5242
▁taste	-5243
▁созда	-5244
▁reason	-5245
▁Ret	-5246
▁Future	-5247
▁passage	-5248
▁wear	-5249
▁Conf	-5250
▁elim	-5251
▁мате	-5252
▁stronger	-5253
ам	-5254
▁cancer	-5255
▁schol	-5256
▁```	-5257
▁Appro	-5258
▁nuances	-5259
▁entreprene	-5260
▁vehicles	-5261
▁ord	-5262
▁dil	-5263
▁filled	-5264
▁swe	-5265
▁она	-5266
▁Fact	-5267
▁вле	-5268
▁exercises	-5269
▁Learning	-5270
ржани	-5271
▁цело	-5272
▁послед	-5273
▁habits	-5274
▁layers	-5275
▁Вла	-5276
▁trade	-5277
▁Second	-5278
▁prices	-5279
вете	-5280
AR	-5281
▁Eth	-5282
▁tut	-5283
▁Тој	-5284
light	-5285
▁charm	-5286
зви	-5287
▁adequate	-5288
лување	-5289
▁versatile	-5290
▁Hol	-5291
oking	-5292
ratic	-5293
▁Digital	-5294
▁evaluate	-5295
пиша	-5296
▁ic	-5297
▁machine	-5298
▁преди	-5299
▁Mic	-5300
▁уни	-5301
▁Av	-5302
▁Utilizing	-5303
▁Out	-5304
нуваат	-5305
▁hyd	-5306
▁evaluation	-5307
кви	-5308
▁scientific	-5309
▁appl	-5310
▁seamlessly	-5311
▁protecting	-5312
▁scr	-5313
lig	-5314
▁delves	-5315
▁фото	-5316
▁obstacles	-5317
▁sites	-5318
▁enforcement	-5319
right	-5320
▁memorable	-5321
lamm	-5322
НЕ	-5323
▁engaged	-5324
▁нама	-5325
▁евра	-5326
▁Discuss	-5327
▁alignment	-5328
▁хо	-5329
▁schools	-5330
▁просто	-5331
▁lic	-5332
▁den	-5333
▁Cap	-5334
▁комп	-5335
▁goes	-5336
▁regularly	-5337
▁conflict	-5338
▁ban	-5339
▁brid	-5340
▁inspire	-5341
▁оче	-5342
▁Many	-5343
▁pet	-5344
▁Follow	-5345
aur	-5346
▁Modern	-5347
▁Enh	-5348
▁пови	-5349
▁preparation	-5350
▁Our	-5351
▁дире	-5352
▁смета	-5353
▁catering	-5354
▁град	-5355
▁University	-5356
рна	-5357
▁regions	-5358
▁images	-5359
ктот	-5360
▁running	-5361
▁gar	-5362
ceptions	-5363
▁Happ	-5364
▁overs	-5365
▁actively	-5366
▁вој	-5367
▁Sign	-5368
▁acknowledging	-5369
raft	-5370
ulated	-5371
кре	-5372
▁generation	-5373
▁прика	-5374
▁ри	-5375
oles	-5376
▁милиони	-5377
rial	-5378
oll	-5379
јт	-5380
▁intriguing	-5381
▁therapeutic	-5382
крај	-5383
▁availability	-5384
▁embark	-5385
▁evolution	-5386
ana	-5387
▁cognitive	-5388
▁inside	-5389
▁musical	-5390
▁practitioners	-5391
▁Sur	-5392
▁entertainment	-5393
▁Among	-5394
▁резулта	-5395
▁longer	-5396
▁користење	-5397
ederal	-5398
ете	-5399
▁dishes	-5400
▁Prom	-5401
▁whole	-5402
ктор	-5403
▁numbers	-5404
▁Dep	-5405
umes	-5406
▁talk	-5407
▁Recogn	-5408
▁collaborative	-5409
ttps	-5410
outs	-5411
ВА	-5412
▁Val	-5413
▁Bre	-5414
▁дода	-5415
▁Relations	-5416
спе	-5417
ilitary	-5418
▁employing	-5419
iber	-5420
▁lon	-5421
лог	-5422
▁бара	-5423
▁stands	-5424
▁causing	-5425
▁sex	-5426
▁mitigate	-5427
рка	-5428
tal	-5429
▁message	-5430
▁disp	-5431
▁vig	-5432
▁contract	-5433
alf	-5434
▁reflection	-5435
▁leaving	-5436
ellectual	-5437
▁locations	-5438
uth	-5439
ready	-5440
▁развој	-5441
▁timely	-5442
▁batter	-5443
ague	-5444
ferences	-5445
▁Dire	-5446
▁низ	-5447
whel	-5448
load	-5449
▁operation	-5450
ерма	-5451
▁transc	-5452
▁general	-5453
ference	-5454
ЈА	-5455
▁дозво	-5456
▁symbol	-5457
▁boost	-5458
пера	-5459
▁Services	-5460
▁Stay	-5461
ull	-5462
▁empowers	-5463
▁expanding	-5464
▁нашите	-5465
▁memory	-5466
▁squ	-5467
▁complement	-5468
St	-5469
▁recently	-5470
▁кр	-5471
ницата	-5472
▁ball	-5473
▁вода	-5474
▁conver	-5475
▁explicit	-5476
▁chemical	-5477
▁texture	-5478
кој	-5479
▁characterized	-5480
▁phil	-5481
▁Monit	-5482
мис	-5483
шен	-5484
▁impl	-5485
▁мину	-5486
▁smaller	-5487
ха	-5488
sw	-5489
▁targeting	-5490
▁recommendations	-5491
нов	-5492
▁classic	-5493
▁publish	-5494
eff	-5495
▁interview	-5496
otive	-5497
esis	-5498
ulture	-5499
▁coverage	-5500
▁Bar	-5501
▁considered	-5502
▁blend	-5503
ley	-5504
ults	-5505
▁Исто	-5506
▁Travel	-5507
▁Identifying	-5508
tising	-5509
▁cour	-5510
istent	-5511
▁почето	-5512
▁temperature	-5513
▁designers	-5514
чните	-5515
▁phenomen	-5516
otor	-5517
▁наоѓа	-5518
▁обла	-5519
▁оние	-5520
iveness	-5521
▁determining	-5522
▁Coun	-5523
connected	-5524
▁slow	-5525
▁memories	-5526
hand	-5527
▁distribut	-5528
▁учи	-5529
▁signs	-5530
▁relevance	-5531
▁length	-5532
▁fuel	-5533
▁финанси	-5534
▁Developing	-5535
▁participating	-5536
▁developed	-5537
▁investments	-5538
owned	-5539
▁personnel	-5540
нци	-5541
▁Enter	-5542
▁arise	-5543
▁renew	-5544
▁errors	-5545
▁idea	-5546
▁overwhel	-5547
prof	-5548
ември	-5549
inated	-5550
▁Practices	-5551
▁spread	-5552
тели	-5553
▁deg	-5554
▁sn	-5555
▁targeted	-5556
▁respective	-5557
▁routine	-5558
▁promises	-5559
bal	-5560
▁flu	-5561
▁Happy	-5562
▁conser	-5563
▁reports	-5564
▁помош	-5565
▁showcasing	-5566
▁alter	-5567
▁Според	-5568
▁everything	-5569
▁already	-5570
▁соција	-5571
▁ep	-5572
▁depend	-5573
нера	-5574
▁messaging	-5575
▁sour	-5576
lected	-5577
▁adventure	-5578
▁unn	-5579
▁Pe	-5580
▁hair	-5581
▁attemp	-5582
ферен	-5583
▁Кога	-5584
▁strive	-5585
▁leverage	-5586
гне	-5587
▁worksh	-5588
▁Ју	-5589
▁себе	-5590
▁член	-5591
▁Har	-5592
мски	-5593
▁teaching	-5594
шко	-5595
▁Meas	-5596
▁subsequent	-5597
▁Ку	-5598
стру	-5599
oved	-5600
▁Respons	-5601
▁patience	-5602
▁glance	-5603
▁bonds	-5604
▁случај	-5605
ДЕ	-5606
▁accessible	-5607
▁holds	-5608
elihood	-5609
▁функ	-5610
▁состој	-5611
▁meeting	-5612
▁млади	-5613
нди	-5614
irms	-5615
▁strict	-5616
шо	-5617
▁psychological	-5618
▁ну	-5619
▁задржани	-5620
сп	-5621
▁paper	-5622
▁reporting	-5623
▁load	-5624
▁Guideline	-5625
ographics	-5626
▁dating	-5627
nings	-5628
▁refine	-5629
ought	-5630
▁aesthetic	-5631
▁excessive	-5632
ounds	-5633
▁предизви	-5634
▁extensive	-5635
▁Non	-5636
▁inclusivity	-5637
org	-5638
▁евро	-5639
▁reviews	-5640
ss	-5641
▁decre	-5642
ticism	-5643
▁likelihood	-5644
▁versatility	-5645
▁cohes	-5646
ток	-5647
gevity	-5648
▁wisdom	-5649
▁Arts	-5650
▁сли	-5651
▁manual	-5652
▁adherence	-5653
▁Att	-5654
▁wid	-5655
▁optimization	-5656
▁captivating	-5657
хрид	-5658
▁influences	-5659
▁Balancing	-5660
▁обезбе	-5661
▁added	-5662
▁repl	-5663
▁replace	-5664
▁prospects	-5665
▁proactive	-5666
merce	-5667
lining	-5668
▁reflecting	-5669
▁право	-5670
▁accounts	-5671
▁Ge	-5672
▁carry	-5673
РЕ	-5674
▁Regularly	-5675
▁intim	-5676
PA	-5677
▁put	-5678
▁Гр	-5679
oral	-5680
▁datab	-5681
▁reputable	-5682
▁reveal	-5683
▁prepared	-5684
▁susp	-5685
▁medium	-5686
▁white	-5687
▁scene	-5688
▁entails	-5689
▁center	-5690
▁think	-5691
idity	-5692
рањето	-5693
▁concent	-5694
▁reinfor	-5695
џе	-5696
тени	-5697
РИ	-5698
▁Security	-5699
пер	-5700
▁committed	-5701
free	-5702
▁Pot	-5703
▁payment	-5704
▁Afric	-5705
▁семеј	-5706
▁кли	-5707
▁travelers	-5708
▁trig	-5709
▁correct	-5710
▁involvement	-5711
ТИ	-5712
cient	-5713
▁weaknesses	-5714
▁одговор	-5715
▁Control	-5716
▁marg	-5717
osphere	-5718
▁Russ	-5719
▁funds	-5720
чкиот	-5721
▁музи	-5722
eters	-5723
▁подгот	-5724
urd	-5725
pris	-5726
▁часот	-5727
▁Work	-5728
PS	-5729
▁профе	-5730
fac	-5731
▁accurately	-5732
говори	-5733
▁electric	-5734
▁Sw	-5735
CA	-5736
▁добро	-5737
sol	-5738
▁Associ	-5739
▁била	-5740
чат	-5741
▁contrac	-5742
▁knowing	-5743
▁ownership	-5744
agers	-5745
▁уба	-5746
ensity	-5747
нал	-5748
▁Systems	-5749
▁opin	-5750
▁Leveraging	-5751
▁innovations	-5752
▁assessment	-5753
ira	-5754
▁тран	-5755
▁difference	-5756
letes	-5757
▁tangible	-5758
▁master	-5759
▁accompl	-5760
▁Post	-5761
▁овозмо	-5762
▁monitor	-5763
,'	-5764
жуваат	-5765
▁екс	-5766
▁пози	-5767
▁кни	-5768
▁task	-5769
▁figures	-5770
overn	-5771
▁Lead	-5772
твр	-5773
oft	-5774
сет	-5775
▁поме	-5776
asp	-5777
▁transformative	-5778
раз	-5779
.)	-5780
VID	-5781
▁savings	-5782
шно	-5783
КА	-5784
▁listening	-5785
▁Европа	-5786
▁осо	-5787
▁precise	-5788
▁Пр	-5789
▁pray	-5790
▁Creating	-5791
▁trend	-5792
▁ние	-5793
▁late	-5794
istry	-5795
сност	-5796
▁compar	-5797
ographical	-5798
▁emphasizes	-5799
▁loan	-5800
▁longevity	-5801
▁divid	-5802
▁gaming	-5803
▁thrive	-5804
▁aid	-5805
▁subject	-5806
ску	-5807
▁фо	-5808
▁безбе	-5809
▁extends	-5810
▁користи	-5811
▁shifts	-5812
andemic	-5813
▁rise	-5814
▁mortg	-5815
▁centered	-5816
▁Web	-5817
▁five	-5818
▁земји	-5819
▁subs	-5820
▁sou	-5821
aly	-5822
▁skilled	-5823
▁после	-5824
▁string	-5825
▁schem	-5826
▁book	-5827
лени	-5828
▁SEO	-5829
▁strengthen	-5830
ourses	-5831
туа	-5832
▁authenticity	-5833
▁interconnected	-5834
▁Ста	-5835
▁audio	-5836
▁motivation	-5837
▁increases	-5838
▁whereas	-5839
ck	-5840
пора	-5841
▁луѓето	-5842
▁streamline	-5843
Ch	-5844
.'	-5845
▁vigil	-5846
▁input	-5847
▁денес	-5848
▁causes	-5849
▁Just	-5850
▁gem	-5851
▁Music	-5852
▁Ро	-5853
▁Прет	-5854
▁Implications	-5855
▁heritage	-5856
▁connecting	-5857
▁severe	-5858
▁article	-5859
▁shows	-5860
▁supports	-5861
enn	-5862
▁adversity	-5863
▁beautiful	-5864
▁tit	-5865
▁употре	-5866
faceted	-5867
▁деца	-5868
▁crow	-5869
▁containing	-5870
▁foreign	-5871
НО	-5872
roduce	-5873
шето	-5874
▁lighting	-5875
ficial	-5876
▁ци	-5877
▁parents	-5878
▁преми	-5879
▁rewards	-5880
tra	-5881
▁communicate	-5882
▁death	-5883
ounting	-5884
ums	-5885
стина	-5886
▁studying	-5887
▁calc	-5888
▁ease	-5889
down	-5890
fol	-5891
▁thoughts	-5892
▁profiles	-5893
дне	-5894
▁извр	-5895
▁resonate	-5896
▁соо	-5897
▁Pa	-5898
▁Оп	-5899
key	-5900
pting	-5901
▁harmon	-5902
вена	-5903
▁playing	-5904
▁depart	-5905
▁Contin	-5906
SS	-5907
▁Sci	-5908
rical	-5909
▁relying	-5910
▁Lim	-5911
▁Hum	-5912
▁assign	-5913
▁ад	-5914
▁securing	-5915
▁ЕУ	-5916
▁liqu	-5917
ula	-5918
▁mel	-5919
▁governance	-5920
пол	-5921
▁Addressing	-5922
prise	-5923
mon	-5924
omestic	-5925
зам	-5926
▁денеска	-5927
▁фе	-5928
apy	-5929
▁adjustments	-5930
лја	-5931
▁employee	-5932
▁народ	-5933
▁acquis	-5934
лан	-5935
веде	-5936
бора	-5937
▁listen	-5938
▁affect	-5939
▁diam	-5940
▁Bo	-5941
uis	-5942
тација	-5943
▁тогаш	-5944
▁participate	-5945
iny	-5946
▁обви	-5947
▁reliability	-5948
▁cool	-5949
▁played	-5950
▁War	-5951
▁reflects	-5952
▁посеб	-5953
co	-5954
▁producing	-5955
▁tip	-5956
cript	-5957
▁version	-5958
▁engineering	-5959
▁atmosphere	-5960
▁documents	-5961
▁иде	-5962
▁повтор	-5963
▁Law	-5964
▁gas	-5965
▁couns	-5966
ashing	-5967
▁insight	-5968
▁mastering	-5969
▁Европ	-5970
ashion	-5971
▁ср	-5972
мија	-5973
▁grapp	-5974
MS	-5975
▁наме	-5976
мат	-5977
▁agg	-5978
▁transforming	-5979
▁India	-5980
▁заедно	-5981
reet	-5982
ocking	-5983
▁Life	-5984
ндар	-5985
▁violence	-5986
▁precision	-5987
▁personalized	-5988
▁wine	-5989
▁veget	-5990
▁реше	-5991
▁текот	-5992
▁tutorial	-5993
▁nich	-5994
▁lifestyle	-5995
▁Factors	-5996
▁coaches	-5997
▁accompan	-5998
▁medicine	-5999
▁eleg	-6000
▁proceed	-6001
▁immense	-6002
▁policym	-6003
asion	-6004
уми	-6005
▁Овој	-6006
▁ши	-6007
▁проблем	-6008
▁Ma	-6009
▁IT	-6010
нијата	-6011
related	-6012
лаг	-6013
▁спе	-6014
пат	-6015
ishes	-6016
pread	-6017
osition	-6018
▁сла	-6019
oting	-6020
▁deploy	-6021
▁adoption	-6022
augh	-6023
▁Part	-6024
otyp	-6025
▁Students	-6026
ormal	-6027
▁Дали	-6028
antages	-6029
▁explo	-6030
▁extended	-6031
▁wel	-6032
aves	-6033
▁Gra	-6034
irus	-6035
▁America	-6036
▁Bas	-6037
▁ang	-6038
▁pressing	-6039
▁dream	-6040
големи	-6041
▁dish	-6042
▁imagine	-6043
▁дури	-6044
▁hardware	-6045
▁arri	-6046
▁hosting	-6047
▁enduring	-6048
▁unfor	-6049
▁HIV	-6050
==	-6051
▁actors	-6052
▁handle	-6053
▁compromising	-6054
▁chain	-6055
▁чув	-6056
▁premium	-6057
▁плани	-6058
▁My	-6059
▁Adap	-6060
uous	-6061
▁tiss	-6062
uests	-6063
▁Know	-6064
▁revolution	-6065
жни	-6066
▁Best	-6067
▁dimensions	-6068
▁intellectual	-6069
▁announ	-6070
▁beneficial	-6071
▁arrangements	-6072
ecessary	-6073
▁applicable	-6074
▁viewers	-6075
▁striking	-6076
▁суд	-6077
▁months	-6078
▁систем	-6079
▁очекува	-6080
osoph	-6081
▁South	-6082
▁Фи	-6083
▁hyp	-6084
quis	-6085
▁sam	-6086
▁achievements	-6087
▁избо	-6088
▁visually	-6089
ibl	-6090
▁luxury	-6091
▁Profession	-6092
▁learned	-6093
менти	-6094
▁poor	-6095
▁претседател	-6096
ody	-6097
▁земја	-6098
iding	-6099
▁cher	-6100
▁pursuing	-6101
▁corporate	-6102
▁coaching	-6103
abric	-6104
бите	-6105
▁Supp	-6106
▁connected	-6107
▁otherwise	-6108
▁horiz	-6109
▁located	-6110
▁гр	-6111
ky	-6112
▁collaborations	-6113
dis	-6114
▁стру	-6115
▁million	-6116
▁views	-6117
▁нивните	-6118
udes	-6119
▁Opportun	-6120
дру	-6121
▁store	-6122
▁меѓународ	-6123
▁disorders	-6124
ented	-6125
▁hind	-6126
▁Compar	-6127
▁oneself	-6128
▁Convers	-6129
verage	-6130
▁sequ	-6131
▁фотографи	-6132
▁explored	-6133
▁материја	-6134
▁колку	-6135
форми	-6136
points	-6137
tire	-6138
lections	-6139
фо	-6140
▁лице	-6141
▁Identify	-6142
тка	-6143
пред	-6144
▁студен	-6145
▁finance	-6146
▁Cultural	-6147
▁Upon	-6148
▁retail	-6149
house	-6150
▁maximum	-6151
page	-6152
▁divine	-6153
▁civil	-6154
unte	-6155
▁experiencing	-6156
icity	-6157
▁categories	-6158
▁selling	-6159
▁Manufact	-6160
роја	-6161
▁European	-6162
edom	-6163
venues	-6164
▁military	-6165
▁careers	-6166
pection	-6167
▁actual	-6168
▁COVID	-6169
▁workshops	-6170
▁multifaceted	-6171
▁favorite	-6172
▁Grou	-6173
▁Америка	-6174
▁derived	-6175
▁struggle	-6176
▁flexible	-6177
▁поч	-6178
▁waiting	-6179
▁wealth	-6180
▁seasoned	-6181
▁format	-6182
▁активно	-6183
убов	-6184
▁Safety	-6185
anges	-6186
▁conversion	-6187
▁енер	-6188
▁ниту	-6189
▁isol	-6190
▁reading	-6191
levi	-6192
▁applied	-6193
▁Охрид	-6194
▁integrated	-6195
сло	-6196
olding	-6197
inding	-6198
opping	-6199
▁Found	-6200
▁Performance	-6201
▁tradition	-6202
▁week	-6203
▁subtle	-6204
▁крајот	-6205
▁generating	-6206
▁comprehension	-6207
▁total	-6208
▁Jour	-6209
бено	-6210
▁Program	-6211
▁Bet	-6212
▁entry	-6213
▁помеѓу	-6214
agues	-6215
▁investigation	-6216
▁образо	-6217
ника	-6218
▁Home	-6219
▁thanks	-6220
▁reaching	-6221
word	-6222
рил	-6223
▁libr	-6224
such	-6225
▁јас	-6226
▁claims	-6227
▁documentation	-6228
▁sophisticated	-6229
▁Time	-6230
▁cleaning	-6231
atically	-6232
▁perceived	-6233
▁согла	-6234
ycl	-6235
▁оди	-6236
чина	-6237
тери	-6238
▁големи	-6239
шни	-6240
itam	-6241
▁pun	-6242
▁launch	-6243
▁неговата	-6244
▁emerge	-6245
▁superior	-6246
▁pitch	-6247
▁agents	-6248
▁formation	-6249
▁податоци	-6250
▁six	-6251
plom	-6252
▁dry	-6253
▁allocation	-6254
▁answ	-6255
чот	-6256
шна	-6257
▁perhaps	-6258
▁intended	-6259
▁бизни	-6260
куп	-6261
▁соста	-6262
▁organic	-6263
▁accessories	-6264
▁easier	-6265
▁CBD	-6266
▁heavy	-6267
▁allevi	-6268
кул	-6269
▁одр	-6270
▁straight	-6271
ноло	-6272
▁група	-6273
▁composition	-6274
гре	-6275
▁reasons	-6276
▁last	-6277
ortive	-6278
стот	-6279
▁Sub	-6280
▁Media	-6281
▁изгра	-6282
ED	-6283
▁потоа	-6284
ности	-6285
OS	-6286
стро	-6287
unately	-6288
▁City	-6289
▁joy	-6290
▁promptly	-6291
ван	-6292
taking	-6293
▁учили	-6294
▁emerged	-6295
▁latest	-6296
▁Може	-6297
каде	-6298
▁елект	-6299
▁scholars	-6300
▁party	-6301
▁craftsmanship	-6302
lessly	-6303
▁соработка	-6304
▁leave	-6305
resp	-6306
▁мре	-6307
▁attributes	-6308
▁elevate	-6309
▁pic	-6310
▁necessitates	-6311
▁big	-6312
▁cooperation	-6313
▁сопстве	-6314
ailing	-6315
▁природ	-6316
▁Environ	-6317
▁combined	-6318
▁previously	-6319
inc	-6320
▁hear	-6321
▁изда	-6322
▁conduct	-6323
▁prospective	-6324
▁Cri	-6325
▁objects	-6326
▁compens	-6327
▁ple	-6328
▁song	-6329
▁Next	-6330
лство	-6331
▁Priv	-6332
▁вашата	-6333
onomic	-6334
▁moist	-6335
▁unity	-6336
▁Equ	-6337
▁scri	-6338
erb	-6339
▁belong	-6340
ounters	-6341
▁athletes	-6342
▁voice	-6343
▁firms	-6344
▁workers	-6345
▁breaking	-6346
▁Open	-6347
▁iconic	-6348
▁Form	-6349
rust	-6350
AC	-6351
▁Mul	-6352
▁delight	-6353
▁ал	-6354
▁moving	-6355
▁тра	-6356
rific	-6357
▁Sum	-6358
▁ast	-6359
▁kind	-6360
▁everyday	-6361
oding	-6362
ML	-6363
▁internet	-6364
▁recre	-6365
▁showcases	-6366
▁Гра	-6367
▁advertising	-6368
тего	-6369
▁residents	-6370
▁Types	-6371
верзите	-6372
▁guests	-6373
▁grad	-6374
▁camer	-6375
▁heightened	-6376
▁Service	-6377
▁Dif	-6378
solving	-6379
мови	-6380
▁Spir	-6381
▁attach	-6382
▁returns	-6383
coin	-6384
▁church	-6385
▁aren	-6386
▁amounts	-6387
gg	-6388
▁glass	-6389
▁Employ	-6390
▁Auth	-6391
▁select	-6392
▁pandemic	-6393
▁пари	-6394
▁wild	-6395
anation	-6396
▁sav	-6397
▁entrepreneurs	-6398
▁separate	-6399
рие	-6400
▁connect	-6401
▁followed	-6402
▁extre	-6403
аѓа	-6404
▁avoiding	-6405
ively	-6406
ER	-6407
enities	-6408
▁musicians	-6409
▁buyers	-6410
▁acts	-6411
▁destination	-6412
utional	-6413
rie	-6414
▁Кон	-6415
eries	-6416
▁road	-6417
▁Review	-6418
▁Cor	-6419
▁Never	-6420
ictim	-6421
▁front	-6422
uctu	-6423
▁interact	-6424
лет	-6425
▁поја	-6426
▁scenario	-6427
▁dog	-6428
▁comfortable	-6429
▁independent	-6430
▁претход	-6431
▁Air	-6432
ordinary	-6433
▁fer	-6434
▁courses	-6435
лајн	-6436
▁секогаш	-6437
▁:	-6438
води	-6439
▁profit	-6440
▁Face	-6441
▁steel	-6442
ipping	-6443
▁Министер	-6444
▁whose	-6445
▁minor	-6446
вети	-6447
aters	-6448
▁услови	-6449
▁вред	-6450
▁argue	-6451
▁inner	-6452
▁carbon	-6453
▁македонски	-6454
▁preparing	-6455
▁Well	-6456
▁хи	-6457
чени	-6458
▁прв	-6459
▁milest	-6460
▁Fost	-6461
▁различни	-6462
▁prominent	-6463
▁квалите	-6464
arter	-6465
▁ПО	-6466
ouble	-6467
▁Context	-6468
eel	-6469
party	-6470
▁define	-6471
ava	-6472
rovers	-6473
▁opt	-6474
▁plant	-6475
▁Legal	-6476
▁девој	-6477
▁incidents	-6478
▁Support	-6479
idespread	-6480
рта	-6481
tedly	-6482
▁empowering	-6483
estim	-6484
▁Christians	-6485
▁вози	-6486
▁networking	-6487
dle	-6488
▁suit	-6489
▁uns	-6490
▁installation	-6491
▁supportive	-6492
▁Colle	-6493
▁sizes	-6494
▁Communication	-6495
oric	-6496
▁screen	-6497
▁fitness	-6498
▁другите	-6499
▁amount	-6500
dri	-6501
nab	-6502
▁Given	-6503
▁Plus	-6504
▁#	-6505
uro	-6506
arian	-6507
▁откри	-6508
gments	-6509
рби	-6510
▁stim	-6511
▁legis	-6512
icating	-6513
▁incident	-6514
▁century	-6515
▁predic	-6516
▁Inf	-6517
▁сед	-6518
▁educators	-6519
▁односно	-6520
▁sell	-6521
▁Initi	-6522
▁apps	-6523
▁Clear	-6524
▁Two	-6525
▁journeys	-6526
▁immersive	-6527
▁provider	-6528
▁units	-6529
▁equal	-6530
▁sleep	-6531
▁housing	-6532
▁extraordinary	-6533
▁try	-6534
▁ox	-6535
▁roof	-6536
кна	-6537
▁attract	-6538
date	-6539
▁formal	-6540
▁schedules	-6541
▁widespread	-6542
▁agreements	-6543
▁calls	-6544
road	-6545
▁Stand	-6546
▁ven	-6547
▁words	-6548
iblical	-6549
▁пристап	-6550
▁por	-6551
▁authorities	-6552
▁sacrific	-6553
tural	-6554
personal	-6555
igration	-6556
▁sensiti	-6557
▁prol	-6558
▁секоја	-6559
▁Are	-6560
▁che	-6561
▁поддршка	-6562
ffee	-6563
▁indicators	-6564
▁името	-6565
▁Govern	-6566
met	-6567
▁card	-6568
hab	-6569
▁пати	-6570
▁du	-6571
▁join	-6572
▁meals	-6573
▁Opportunities	-6574
▁tourism	-6575
▁фак	-6576
▁reveals	-6577
▁граѓаните	-6578
ino	-6579
▁Pay	-6580
вка	-6581
▁иску	-6582
▁ancient	-6583
▁surfaces	-6584
▁governments	-6585
▁hospital	-6586
▁Act	-6587
▁surv	-6588
▁profile	-6589
нско	-6590
▁optimizing	-6591
▁restrictions	-6592
▁Brand	-6593
obal	-6594
▁дете	-6595
▁absor	-6596
▁geographical	-6597
▁decades	-6598
',	-6599
▁извор	-6600
och	-6601
▁ampl	-6602
▁Пра	-6603
вност	-6604
▁карак	-6605
aver	-6606
▁inspiring	-6607
▁automotive	-6608
▁prepare	-6609
▁modifications	-6610
▁domestic	-6611
▁scal	-6612
▁fluctu	-6613
лено	-6614
▁Inn	-6615
▁noting	-6616
▁essence	-6617
▁employment	-6618
▁output	-6619
▁machines	-6620
▁constantly	-6621
▁combat	-6622
▁attacks	-6623
stone	-6624
▁commonly	-6625
ливо	-6626
▁Ne	-6627
▁Networ	-6628
▁variations	-6629
▁renowned	-6630
atches	-6631
▁NF	-6632
▁integral	-6633
▁upcoming	-6634
▁assist	-6635
▁encounters	-6636
lim	-6637
▁reminder	-6638
▁excer	-6639
▁conscious	-6640
▁generally	-6641
▁Spirit	-6642
▁safeguarding	-6643
▁животот	-6644
▁payments	-6645
▁малку	-6646
▁receiving	-6647
▁silver	-6648
▁Potential	-6649
▁meets	-6650
SA	-6651
rooms	-6652
▁reser	-6653
▁suitable	-6654
▁Foot	-6655
▁trading	-6656
▁повторно	-6657
▁fan	-6658
▁brain	-6659
▁bed	-6660
apping	-6661
▁element	-6662
▁заштита	-6663
▁recipe	-6664
▁generated	-6665
▁administration	-6666
▁Grow	-6667
▁harnessing	-6668
▁positioning	-6669
oning	-6670
▁policymakers	-6671
▁играта	-6672
▁сле	-6673
▁врска	-6674
▁институ	-6675
▁Aust	-6676
▁centers	-6677
▁niche	-6678
▁clarity	-6679
▁Christianity	-6680
▁purchase	-6681
used	-6682
▁sweet	-6683
▁испра	-6684
тарот	-6685
▁philosoph	-6686
▁организа	-6687
▁backgrounds	-6688
▁рас	-6689
gers	-6690
oman	-6691
▁Take	-6692
▁borrow	-6693
▁првиот	-6694
▁unnecessary	-6695
▁topic	-6696
▁complexities	-6697
▁endeavors	-6698
▁sectors	-6699
▁Ле	-6700
▁Examination	-6701
inf	-6702
МРО	-6703
▁athle	-6704
▁Cost	-6705
oretical	-6706
▁molec	-6707
▁Financial	-6708
▁влија	-6709
▁pal	-6710
▁advice	-6711
▁electronic	-6712
▁организи	-6713
дио	-6714
нети	-6715
▁little	-6716
мент	-6717
▁cannab	-6718
рио	-6719
ром	-6720
parts	-6721
▁Empower	-6722
цот	-6723
▁relaxation	-6724
▁haz	-6725
▁rooted	-6726
rought	-6727
▁месеци	-6728
▁gear	-6729
▁agency	-6730
▁motor	-6731
https	-6732
вести	-6733
▁gaining	-6734
▁targets	-6735
▁willing	-6736
▁Цен	-6737
▁одли	-6738
▁corner	-6739
▁vulnerable	-6740
▁bolst	-6741
ports	-6742
▁откако	-6743
▁identified	-6744
чната	-6745
▁нашиот	-6746
▁page	-6747
▁interested	-6748
▁argu	-6749
▁diseases	-6750
▁Park	-6751
▁насе	-6752
▁толку	-6753
▁паза	-6754
▁постиг	-6755
▁thoughtfully	-6756
▁overcome	-6757
▁inspired	-6758
▁основа	-6759
▁framework	-6760
urring	-6761
▁expansion	-6762
▁statement	-6763
▁word	-6764
▁Autom	-6765
▁managed	-6766
arking	-6767
▁assessments	-6768
▁equity	-6769
рени	-6770
asive	-6771
uling	-6772
▁scre	-6773
▁interactive	-6774
▁нов	-6775
▁dead	-6776
▁creations	-6777
▁equitable	-6778
▁Analyzing	-6779
volving	-6780
▁meticulous	-6781
▁architecture	-6782
▁dig	-6783
▁упра	-6784
);	-6785
▁funding	-6786
▁ВМРО	-6787
▁forth	-6788
▁prevention	-6789
▁услу	-6790
▁америка	-6791
▁workflow	-6792
▁practicing	-6793
entist	-6794
▁Visual	-6795
▁showcase	-6796
▁half	-6797
▁incredi	-6798
▁pushing	-6799
▁збо	-6800
▁North	-6801
▁comput	-6802
▁Familiar	-6803
vent	-6804
▁Background	-6805
▁videos	-6806
▁excerpt	-6807
ipp	-6808
тре	-6809
olic	-6810
▁explores	-6811
▁ана	-6812
▁affordable	-6813
нлајн	-6814
▁oral	-6815
▁Tip	-6816
кло	-6817
▁statistics	-6818
irth	-6819
▁значи	-6820
▁Indust	-6821
▁save	-6822
▁слобод	-6823
▁traveling	-6824
▁Фе	-6825
▁counterparts	-6826
▁Experience	-6827
edia	-6828
▁Local	-6829
▁excellence	-6830
▁Пред	-6831
▁chronic	-6832
▁Beh	-6833
▁adhering	-6834
▁Particip	-6835
▁Collaboration	-6836
bles	-6837
▁voc	-6838
erative	-6839
▁discussed	-6840
кола	-6841
▁Setting	-6842
▁contracts	-6843
▁контро	-6844
полните	-6845
▁Platform	-6846
▁temperatures	-6847
rosoft	-6848
▁victim	-6849
▁можност	-6850
▁exhibit	-6851
говорот	-6852
▁attending	-6853
▁Му	-6854
▁бра	-6855
▁convey	-6856
anted	-6857
стат	-6858
▁adaptation	-6859
▁grace	-6860
▁usually	-6861
▁Ed	-6862
▁extend	-6863
▁gaps	-6864
▁server	-6865
▁eco	-6866
urrent	-6867
позна	-6868
▁band	-6869
▁договор	-6870
многу	-6871
▁automated	-6872
▁theoretical	-6873
кција	-6874
▁black	-6875
▁Craf	-6876
цеп	-6877
uisine	-6878
omet	-6879
▁опште	-6880
▁skincare	-6881
▁estim	-6882
▁introduce	-6883
▁bott	-6884
▁amenities	-6885
▁Information	-6886
дена	-6887
вореш	-6888
▁thriving	-6889
▁mindfulness	-6890
▁Меѓу	-6891
▁former	-6892
▁whenever	-6893
erate	-6894
func	-6895
▁office	-6896
▁recipes	-6897
▁Material	-6898
▁Prior	-6899
▁Manufacturing	-6900
▁Cul	-6901
▁tests	-6902
▁chance	-6903
▁ниво	-6904
▁кому	-6905
чниот	-6906
▁Bit	-6907
▁accomplish	-6908
▁Self	-6909
▁College	-6910
▁презе	-6911
▁artificial	-6912
▁сооп	-6913
point	-6914
AT	-6915
ПМ	-6916
▁reactions	-6917
▁faster	-6918
чера	-6919
discipl	-6920
▁Analyze	-6921
▁traum	-6922
▁Class	-6923
▁thr	-6924
rag	-6925
▁emphasis	-6926
▁transitions	-6927
onial	-6928
▁обје	-6929
▁defense	-6930
▁тука	-6931
estern	-6932
▁managers	-6933
▁peers	-6934
▁целиот	-6935
inter	-6936
bl	-6937
▁јавно	-6938
▁May	-6939
▁See	-6940
▁described	-6941
▁goods	-6942
▁nearby	-6943
tors	-6944
▁сигу	-6945
▁ов	-6946
▁Group	-6947
▁prayer	-6948
▁sections	-6949
▁Гру	-6950
▁homes	-6951
▁shapes	-6952
oga	-6953
ken	-6954
▁Га	-6955
КИ	-6956
ooting	-6957
▁defensive	-6958
▁исклу	-6959
▁raises	-6960
▁retention	-6961
pet	-6962
▁друга	-6963
▁determination	-6964
▁моде	-6965
apan	-6966
table	-6967
uris	-6968
▁linked	-6969
▁награ	-6970
▁variety	-6971
ns	-6972
▁species	-6973
▁routines	-6974
gi	-6975
onn	-6976
рови	-6977
estry	-6978
ведува	-6979
▁anyone	-6980
▁paths	-6981
umin	-6982
▁диза	-6983
▁muscle	-6984
ightly	-6985
▁cards	-6986
▁cook	-6987
кон	-6988
мпа	-6989
▁versions	-6990
udio	-6991
▁balanced	-6992
▁remaining	-6993
▁Phys	-6994
сега	-6995
ountain	-6996
▁Establishing	-6997
рано	-6998
▁freedom	-6999
▁Utilize	-7000
▁School	-7001
itter	-7002
▁outdoor	-7003
▁fem	-7004
фиција	-7005
▁manif	-7006
▁Кли	-7007
вија	-7008
▁прису	-7009
▁crisis	-7010
rings	-7011
▁Facebook	-7012
кси	-7013
▁explicitly	-7014
▁национа	-7015
моби	-7016
words	-7017
▁европ	-7018
▁dark	-7019
▁oblig	-7020
Ps	-7021
▁Грција	-7022
▁Quality	-7023
theless	-7024
▁inflamm	-7025
EM	-7026
▁fat	-7027
▁unpre	-7028
▁webpage	-7029
▁Ав	-7030
▁внат	-7031
▁harmonious	-7032
epth	-7033
PIs	-7034
▁кра	-7035
▁дви	-7036
▁fashion	-7037
▁outlined	-7038
днаш	-7039
utive	-7040
▁мисле	-7041
▁regim	-7042
▁Altern	-7043
▁highlighted	-7044
▁Human	-7045
▁serious	-7046
▁tast	-7047
▁Traditional	-7048
▁тро	-7049
ocol	-7050
▁Adop	-7051
▁guarantees	-7052
▁checks	-7053
▁beloved	-7054
▁Има	-7055
▁El	-7056
BA	-7057
ган	-7058
water	-7059
▁millions	-7060
▁Comb	-7061
▁среди	-7062
јан	-7063
▁градот	-7064
▁disciplines	-7065
▁protein	-7066
▁constitutes	-7067
▁feeling	-7068
▁бор	-7069
▁vacc	-7070
▁maximizing	-7071
▁ling	-7072
▁mist	-7073
▁failure	-7074
▁Oper	-7075
ogether	-7076
▁Strategy	-7077
▁discourse	-7078
▁preserve	-7079
вено	-7080
▁сами	-7081
▁box	-7082
▁неза	-7083
▁occup	-7084
▁customized	-7085
▁phase	-7086
▁tips	-7087
▁покрај	-7088
▁Content	-7089
▁talents	-7090
▁shifting	-7091
raction	-7092
▁спро	-7093
▁overlooked	-7094
ette	-7095
▁един	-7096
▁demographics	-7097
▁доаѓа	-7098
▁volunte	-7099
▁Early	-7100
▁curric	-7101
▁култура	-7102
▁legacy	-7103
раше	-7104
▁very	-7105
ПМНЕ	-7106
▁pose	-7107
нце	-7108
▁photograph	-7109
aker	-7110
▁внима	-7111
▁spirituality	-7112
▁intu	-7113
▁versus	-7114
▁пое	-7115
▁priorities	-7116
▁population	-7117
erman	-7118
▁traits	-7119
▁stringent	-7120
лена	-7121
▁uncover	-7122
▁Professional	-7123
▁sought	-7124
visions	-7125
tingu	-7126
▁updated	-7127
▁refining	-7128
▁regulation	-7129
▁nation	-7130
▁acquisition	-7131
кото	-7132
▁Conversely	-7133
▁пет	-7134
▁Ла	-7135
ranch	-7136
▁Orig	-7137
лина	-7138
inning	-7139
▁Indeed	-7140
riting	-7141
▁operate	-7142
КО	-7143
▁Elect	-7144
▁fun	-7145
board	-7146
▁served	-7147
▁combination	-7148
▁request	-7149
▁uncertainty	-7150
▁Заев	-7151
▁Choosing	-7152
▁criminal	-7153
▁Nevertheless	-7154
PR	-7155
▁Владата	-7156
omy	-7157
▁matches	-7158
▁Bel	-7159
▁парти	-7160
▁annual	-7161
▁affordability	-7162
▁фудба	-7163
▁sufficient	-7164
▁attor	-7165
▁Japan	-7166
▁journal	-7167
▁fant	-7168
commerce	-7169
▁Rob	-7170
▁corresp	-7171
браќа	-7172
▁wood	-7173
▁eager	-7174
▁dang	-7175
▁literature	-7176
▁authority	-7177
▁facilitates	-7178
asy	-7179
▁Instit	-7180
▁Unlike	-7181
▁elig	-7182
ogen	-7183
вед	-7184
▁economy	-7185
▁advocacy	-7186
▁Оваа	-7187
hyth	-7188
▁reduction	-7189
scale	-7190
▁lost	-7191
▁proficiency	-7192
чини	-7193
▁уме	-7194
▁предви	-7195
▁History	-7196
▁appoint	-7197
▁guiding	-7198
▁conducting	-7199
RM	-7200
▁member	-7201
▁discovery	-7202
▁голема	-7203
▁ули	-7204
▁студи	-7205
▁detection	-7206
itement	-7207
▁structural	-7208
▁случи	-7209
▁претставува	-7210
ена	-7211
▁Гла	-7212
disciplinary	-7213
▁brought	-7214
mentation	-7215
cip	-7216
▁Ter	-7217
▁dilig	-7218
known	-7219
▁избе	-7220
▁Ан	-7221
▁Yet	-7222
▁bill	-7223
▁written	-7224
▁поврза	-7225
▁Fr	-7226
▁exclusive	-7227
ЛЕ	-7228
ugh	-7229
▁meal	-7230
▁limits	-7231
▁новина	-7232
ership	-7233
▁Microsoft	-7234
▁nam	-7235
driven	-7236
criptions	-7237
▁instructions	-7238
▁occurs	-7239
▁minutes	-7240
мир	-7241
▁struggles	-7242
пула	-7243
▁formats	-7244
▁emphasize	-7245
▁held	-7246
▁Innov	-7247
▁Optim	-7248
▁notes	-7249
▁emissions	-7250
▁образова	-7251
▁пону	-7252
кор	-7253
▁Global	-7254
лага	-7255
paralle	-7256
▁Central	-7257
▁financing	-7258
▁copy	-7259
▁preval	-7260
▁himself	-7261
▁Requ	-7262
▁vulnerability	-7263
▁Hy	-7264
▁interface	-7265
▁Game	-7266
iet	-7267
▁cash	-7268
estiv	-7269
▁tailor	-7270
▁fabric	-7271
cons	-7272
economic	-7273
▁constructive	-7274
▁interpersonal	-7275
iling	-7276
anting	-7277
DA	-7278
▁идни	-7279
▁competing	-7280
▁customization	-7281
чување	-7282
▁collect	-7283
ault	-7284
▁sem	-7285
▁diplom	-7286
▁dining	-7287
rypt	-7288
▁особено	-7289
▁mir	-7290
▁спре	-7291
▁Canad	-7292
▁избор	-7293
ина	-7294
ha	-7295
▁Ри	-7296
tify	-7297
▁farm	-7298
entral	-7299
acerb	-7300
paralleled	-7301
рски	-7302
▁incenti	-7303
▁Pat	-7304
▁won	-7305
▁проте	-7306
▁Dist	-7307
▁Energy	-7308
stream	-7309
▁forming	-7310
▁vict	-7311
▁democratic	-7312
▁spent	-7313
▁theology	-7314
▁неговиот	-7315
▁domain	-7316
ES	-7317
thor	-7318
▁upgra	-7319
▁exacerb	-7320
▁Investig	-7321
▁indicates	-7322
▁прашања	-7323
▁accommodations	-7324
tor	-7325
▁Signific	-7326
amic	-7327
▁harmful	-7328
▁coupl	-7329
▁truth	-7330
oe	-7331
▁почна	-7332
▁progression	-7333
дам	-7334
▁complications	-7335
pts	-7336
▁East	-7337
жна	-7338
▁Companies	-7339
▁losses	-7340
▁academ	-7341
▁thoroughly	-7342
▁combines	-7343
▁Ensure	-7344
▁allowed	-7345
▁summary	-7346
▁excitement	-7347
▁statements	-7348
▁promise	-7349
▁facets	-7350
▁visiting	-7351
прија	-7352
▁balancing	-7353
▁tell	-7354
вле	-7355
▁доколку	-7356
osed	-7357
▁tension	-7358
▁unparalleled	-7359
▁бизнис	-7360
▁treating	-7361
▁poll	-7362
▁distinctive	-7363
▁Studies	-7364
▁Customer	-7365
▁recognized	-7366
рена	-7367
▁genres	-7368
▁Football	-7369
▁animals	-7370
▁wait	-7371
▁inclusion	-7372
▁медиум	-7373
шување	-7374
мента	-7375
rap	-7376
▁sport	-7377
ecurity	-7378
▁Prepar	-7379
▁Word	-7380
▁дава	-7381
▁Лу	-7382
▁Team	-7383
про	-7384
▁spark	-7385
▁македонскиот	-7386
▁Ess	-7387
▁doc	-7388
▁вак	-7389
▁controvers	-7390
▁dram	-7391
▁federal	-7392
▁strike	-7393
▁gratitude	-7394
▁error	-7395
▁wonder	-7396
▁Less	-7397
▁scale	-7398
ued	-7399
▁Science	-7400
чо	-7401
rolog	-7402
▁ready	-7403
▁изгледа	-7404
▁уби	-7405
▁почи	-7406
▁доку	-7407
▁persever	-7408
чер	-7409
▁addresses	-7410
▁Mat	-7411
IS	-7412
▁програма	-7413
▁aspirations	-7414
lies	-7415
▁genre	-7416
спи	-7417
▁ask	-7418
▁configurations	-7419
▁уреди	-7420
▁Approach	-7421
▁least	-7422
▁recruit	-7423
itchen	-7424
▁aud	-7425
▁partner	-7426
▁парт	-7427
▁humanity	-7428
▁денари	-7429
▁објави	-7430
џи	-7431
▁ca	-7432
otic	-7433
worth	-7434
▁minds	-7435
евски	-7436
▁unlock	-7437
▁distingu	-7438
▁Based	-7439
▁surve	-7440
▁Exploration	-7441
▁Read	-7442
sp	-7443
under	-7444
▁Lo	-7445
▁cloth	-7446
▁Indian	-7447
▁Port	-7448
▁assessing	-7449
rate	-7450
ching	-7451
▁натпревар	-7452
▁recommended	-7453
urisd	-7454
▁youth	-7455
нери	-7456
level	-7457
▁поте	-7458
▁became	-7459
▁aligned	-7460
▁bra	-7461
▁automation	-7462
▁healthier	-7463
▁identities	-7464
▁tech	-7465
мено	-7466
▁IP	-7467
сли	-7468
piec	-7469
yle	-7470
▁mobility	-7471
ritis	-7472
дење	-7473
▁partnership	-7474
▁Successful	-7475
▁проблеми	-7476
▁testament	-7477
aunting	-7478
▁вас	-7479
edding	-7480
▁места	-7481
▁territ	-7482
▁инвести	-7483
▁grasp	-7484
missions	-7485
▁prow	-7486
ryption	-7487
▁opponents	-7488
▁Deep	-7489
▁Тие	-7490
▁trusted	-7491
emed	-7492
▁нова	-7493
▁sensitivity	-7494
▁Secondly	-7495
▁своето	-7496
▁trip	-7497
▁avenues	-7498
▁човек	-7499
▁bul	-7500
▁seems	-7501
▁teeth	-7502
▁Practice	-7503
▁meetings	-7504
▁задово	-7505
CO	-7506
▁nuanced	-7507
▁utilization	-7508
▁опре	-7509
рма	-7510
tile	-7511
▁accel	-7512
▁thous	-7513
▁prowess	-7514
▁Wind	-7515
▁effect	-7516
▁онлајн	-7517
ЦИ	-7518
osis	-7519
▁indul	-7520
▁тру	-7521
▁affili	-7522
▁computing	-7523
aph	-7524
пис	-7525
▁mand	-7526
▁забеле	-7527
▁чети	-7528
▁земјата	-7529
лиза	-7530
AM	-7531
▁veter	-7532
icacy	-7533
▁Top	-7534
▁marginal	-7535
gery	-7536
▁autonom	-7537
▁tapestry	-7538
paced	-7539
▁Func	-7540
prises	-7541
лари	-7542
▁Special	-7543
▁Gold	-7544
▁pair	-7545
▁Method	-7546
tification	-7547
▁sugar	-7548
▁автомоби	-7549
▁сакате	-7550
▁nations	-7551
▁portfol	-7552
▁cryst	-7553
▁detailed	-7554
▁personality	-7555
▁spot	-7556
ancies	-7557
▁gains	-7558
▁court	-7559
▁compensation	-7560
▁accum	-7561
▁поглед	-7562
▁Су	-7563
▁phenomenon	-7564
▁Мар	-7565
бира	-7566
▁vulnerabilities	-7567
тивно	-7568
▁Ensuring	-7569
top	-7570
тивни	-7571
▁tackle	-7572
жам	-7573
lements	-7574
▁harmony	-7575
▁conducive	-7576
▁см	-7577
▁прес	-7578
▁embodies	-7579
son	-7580
▁below	-7581
▁интернет	-7582
▁Direct	-7583
▁encompasses	-7584
▁неа	-7585
▁doors	-7586
.).	-7587
уреди	-7588
▁Character	-7589
▁introduced	-7590
▁rock	-7591
roph	-7592
▁overwhelming	-7593
гна	-7594
лагода	-7595
ДЕО	-7596
▁др	-7597
▁однос	-7598
вам	-7599
▁држава	-7600
▁ам	-7601
pecting	-7602
▁advancing	-7603
тина	-7604
тиот	-7605
ardship	-7606
▁regist	-7607
шт	-7608
uses	-7609
▁deal	-7610
пози	-7611
▁Test	-7612
▁daunting	-7613
лив	-7614
lers	-7615
▁timeless	-7616
▁industrial	-7617
▁Center	-7618
▁invent	-7619
▁inviting	-7620
▁генера	-7621
▁техноло	-7622
▁presentation	-7623
▁stock	-7624
ројатно	-7625
▁Герма	-7626
eting	-7627
▁theory	-7628
▁Make	-7629
▁critically	-7630
▁аплика	-7631
▁penal	-7632
▁tun	-7633
atching	-7634
▁зголем	-7635
▁Emphas	-7636
▁marketers	-7637
▁listing	-7638
▁conversation	-7639
oks	-7640
јано	-7641
As	-7642
▁socio	-7643
▁links	-7644
▁aligns	-7645
▁schemes	-7646
▁engines	-7647
▁Treat	-7648
▁phone	-7649
▁restaur	-7650
▁representing	-7651
цио	-7652
▁unt	-7653
▁deepen	-7654
▁controls	-7655
▁Growth	-7656
▁nutrition	-7657
oining	-7658
▁forget	-7659
iter	-7660
▁Black	-7661
▁Rather	-7662
▁хе	-7663
▁immediately	-7664
ibly	-7665
▁Association	-7666
▁државата	-7667
▁демо	-7668
▁intentional	-7669
дер	-7670
▁appears	-7671
ask	-7672
▁Mc	-7673
otes	-7674
▁мини	-7675
▁confidently	-7676
пте	-7677
▁Since	-7678
▁adopt	-7679
▁heard	-7680
▁exists	-7681
▁бли	-7682
▁Political	-7683
▁brows	-7684
шниот	-7685
▁stead	-7686
▁Significance	-7687
▁Medical	-7688
▁потвр	-7689
▁domains	-7690
▁implemented	-7691
▁classes	-7692
▁names	-7693
▁flour	-7694
▁User	-7695
▁coffee	-7696
▁пример	-7697
▁Training	-7698
ateral	-7699
▁општи	-7700
▁куп	-7701
▁сосе	-7702
▁trying	-7703
usions	-7704
▁Following	-7705
змот	-7706
▁indicate	-7707
aways	-7708
▁остана	-7709
▁traject	-7710
eds	-7711
▁ек	-7712
▁дојде	-7713
▁конта	-7714
▁ingredient	-7715
ВО	-7716
▁зошто	-7717
▁mechanical	-7718
▁ама	-7719
▁зборува	-7720
▁центар	-7721
тат	-7722
▁math	-7723
▁volume	-7724
▁Фран	-7725
▁Mental	-7726
вска	-7727
tible	-7728
▁Apple	-7729
uted	-7730
ulting	-7731
ighter	-7732
▁rare	-7733
▁bank	-7734
▁Bra	-7735
mm	-7736
чита	-7737
▁mindset	-7738
▁Struc	-7739
зната	-7740
▁enjoying	-7741
CC	-7742
▁ranking	-7743
▁disparate	-7744
rench	-7745
▁даде	-7746
anging	-7747
ascular	-7748
▁genetic	-7749
вното	-7750
▁дополните	-7751
▁pages	-7752
▁мод	-7753
▁destinations	-7754
▁interviews	-7755
▁постап	-7756
▁поле	-7757
▁average	-7758
breaking	-7759
▁производи	-7760
тон	-7761
▁pets	-7762
pens	-7763
▁ВО	-7764
enty	-7765
▁Soft	-7766
▁Users	-7767
▁Don	-7768
▁Ro	-7769
brid	-7770
▁Fil	-7771
▁тем	-7772
рете	-7773
▁спа	-7774
▁храна	-7775
култе	-7776
нците	-7777
gn	-7778
antly	-7779
тру	-7780
▁пер	-7781
стото	-7782
▁deter	-7783
actively	-7784
▁одре	-7785
▁hit	-7786
▁форми	-7787
▁проекти	-7788
▁moisture	-7789
▁дело	-7790
СМ	-7791
▁Ide	-7792
▁efficacy	-7793
etes	-7794
iform	-7795
char	-7796
▁humans	-7797
▁voices	-7798
▁Pop	-7799
▁necessitating	-7800
▁cas	-7801
▁деј	-7802
▁precious	-7803
box	-7804
▁cities	-7805
▁сакаат	-7806
▁standing	-7807
▁Цр	-7808
▁languages	-7809
▁encompassing	-7810
▁charge	-7811
▁rati	-7812
itim	-7813
▁cuisine	-7814
▁недела	-7815
▁marked	-7816
▁battery	-7817
▁alb	-7818
▁adults	-7819
▁era	-7820
▁excel	-7821
▁widely	-7822
птември	-7823
▁identification	-7824
▁cryptocurrency	-7825
ycle	-7826
▁conducted	-7827
▁децата	-7828
PU	-7829
▁мен	-7830
antic	-7831
▁Integrating	-7832
▁Fort	-7833
▁creators	-7834
▁Integration	-7835
inger	-7836
▁imper	-7837
▁roll	-7838
▁night	-7839
▁заба	-7840
▁мене	-7841
▁gathering	-7842
▁neighbor	-7843
▁methodologies	-7844
вори	-7845
phones	-7846
AS	-7847
сови	-7848
нии	-7849
▁станува	-7850
▁officials	-7851
▁bene	-7852
atin	-7853
▁Bi	-7854
▁rot	-7855
▁holding	-7856
▁sounds	-7857
▁getting	-7858
▁Prin	-7859
roll	-7860
▁Recognizing	-7861
оти	-7862
▁наре	-7863
ided	-7864
▁transmission	-7865
▁Ver	-7866
▁Че	-7867
▁rhyth	-7868
▁shares	-7869
▁Ext	-7870
▁debt	-7871
▁пого	-7872
▁Ха	-7873
titudes	-7874
▁Russia	-7875
▁amongst	-7876
▁Cross	-7877
▁exemplifies	-7878
▁decor	-7879
▁Hand	-7880
▁проектот	-7881
agon	-7882
rown	-7883
▁fulfill	-7884
orse	-7885
▁Incre	-7886
▁Selecting	-7887
▁забора	-7888
▁opinions	-7889
fast	-7890
чу	-7891
▁pool	-7892
▁stew	-7893
▁interpretation	-7894
нова	-7895
▁She	-7896
izable	-7897
▁Church	-7898
▁waters	-7899
▁ништо	-7900
▁teachers	-7901
",	-7902
▁immune	-7903
▁Бито	-7904
riad	-7905
▁protective	-7906
▁loved	-7907
▁спи	-7908
▁недо	-7909
▁perpet	-7910
evolving	-7911
▁date	-7912
▁shopping	-7913
▁gradually	-7914
▁differenti	-7915
▁cannabis	-7916
oubtedly	-7917
cont	-7918
▁percent	-7919
▁weigh	-7920
▁постои	-7921
asm	-7922
▁crafted	-7923
atings	-7924
----------	-7925
▁alleviate	-7926
▁боле	-7927
▁temporary	-7928
▁Тур	-7929
▁gent	-7930
▁jurisd	-7931
▁attractive	-7932
▁Ang	-7933
▁tom	-7934
▁Ever	-7935
▁распо	-7936
стан	-7937
▁pursuit	-7938
▁President	-7939
▁array	-7940
ders	-7941
▁минути	-7942
rators	-7943
▁ж	-7944
▁Policy	-7945
при	-7946
▁biblical	-7947
увате	-7948
ait	-7949
▁доста	-7950
▁заврши	-7951
▁Understand	-7952
▁command	-7953
▁coupled	-7954
▁mitigating	-7955
ube	-7956
▁HT	-7957
thern	-7958
▁Bitcoin	-7959
▁Super	-7960
▁metals	-7961
▁packages	-7962
▁cardi	-7963
▁Java	-7964
▁cycle	-7965
through	-7966
endering	-7967
▁believers	-7968
▁stone	-7969
▁submit	-7970
ЛИ	-7971
▁acid	-7972
uls	-7973
▁Psych	-7974
▁meditation	-7975
▁photography	-7976
▁нивната	-7977
стива	-7978
▁Star	-7979
▁older	-7980
▁swift	-7981
▁наде	-7982
▁Child	-7983
▁newly	-7984
▁Selection	-7985
▁thousands	-7986
▁breathtaking	-7987
▁сим	-7988
▁fruit	-7989
▁dietary	-7990
▁wire	-7991
▁myriad	-7992
▁претседателот	-7993
▁mood	-7994
▁champ	-7995
otional	-7996
▁delicious	-7997
▁demanding	-7998
▁strengthening	-7999
uce	-8000
ucle	-8001
▁colleagues	-8002
рита	-8003
▁Austral	-8004
▁Explanation	-8005
▁collaborate	-8006
▁clar	-8007
▁books	-8008
▁offensive	-8009
▁Engine	-8010
cultural	-8011
▁сепак	-8012
▁vitam	-8013
▁perceptions	-8014
▁desire	-8015
▁roots	-8016
▁gam	-8017
▁began	-8018
▁aware	-8019
▁entirely	-8020
▁Why	-8021
otion	-8022
▁theme	-8023
нство	-8024
▁China	-8025
▁вашите	-8026
▁МА	-8027
▁внатреш	-8028
▁Multi	-8029
▁СЕ	-8030
▁жа	-8031
erve	-8032
▁sexual	-8033
чност	-8034
▁discovered	-8035
▁гу	-8036
▁rom	-8037
▁animal	-8038
▁adventures	-8039
tirement	-8040
▁ново	-8041
inity	-8042
▁medications	-8043
▁cream	-8044
▁Protection	-8045
тко	-8046
▁mouth	-8047
▁spanning	-8048
▁strengthens	-8049
кму	-8050
azon	-8051
▁бес	-8052
▁places	-8053
▁сообраќа	-8054
tes	-8055
тика	-8056
▁имате	-8057
azz	-8058
▁Br	-8059
▁perception	-8060
▁relief	-8061
field	-8062
▁senti	-8063
▁clearly	-8064
▁Јо	-8065
fers	-8066
▁presenting	-8067
lets	-8068
▁asset	-8069
▁joint	-8070
▁transit	-8071
▁ap	-8072
coh	-8073
▁Trust	-8074
▁intersection	-8075
opy	-8076
▁рако	-8077
▁век	-8078
▁Solutions	-8079
▁форма	-8080
▁спорт	-8081
▁vend	-8082
▁received	-8083
рем	-8084
▁segment	-8085
▁advances	-8086
▁Within	-8087
▁натпрева	-8088
▁гласа	-8089
▁Camp	-8090
▁edge	-8091
▁pip	-8092
▁Буга	-8093
▁Day	-8094
ET	-8095
зу	-8096
▁walk	-8097
▁одржа	-8098
bit	-8099
▁Like	-8100
▁undoubtedly	-8101
▁volumes	-8102
awareness	-8103
слу	-8104
▁confirm	-8105
▁signals	-8106
eties	-8107
erie	-8108
▁preferred	-8109
ложе	-8110
▁degree	-8111
▁covered	-8112
▁култу	-8113
▁interesting	-8114
elt	-8115
uity	-8116
▁tissue	-8117
▁evolve	-8118
▁Хо	-8119
▁escal	-8120
▁ситуа	-8121
▁Cur	-8122
▁одбра	-8123
▁streams	-8124
▁gems	-8125
▁официја	-8126
▁motion	-8127
▁Planning	-8128
iforn	-8129
▁quite	-8130
▁Food	-8131
▁tooth	-8132
▁scores	-8133
▁debates	-8134
вници	-8135
▁cycles	-8136
tial	-8137
▁Mich	-8138
▁endless	-8139
www	-8140
▁inflammation	-8141
▁utilized	-8142
▁abuse	-8143
▁viewing	-8144
▁Avoid	-8145
ero	-8146
racy	-8147
▁beneath	-8148
author	-8149
oval	-8150
▁Compreh	-8151
▁Vol	-8152
▁Privacy	-8153
▁horizons	-8154
▁cherished	-8155
▁зака	-8156
irable	-8157
▁selected	-8158
▁occasion	-8159
▁introducing	-8160
▁foundational	-8161
волно	-8162
▁York	-8163
▁centuries	-8164
nering	-8165
▁licens	-8166
тски	-8167
▁возра	-8168
▁арх	-8169
uk	-8170
▁discrim	-8171
▁ice	-8172
лин	-8173
ќање	-8174
сата	-8175
▁dispos	-8176
▁промени	-8177
▁Essential	-8178
▁brief	-8179
јца	-8180
слови	-8181
▁teachings	-8182
▁навистина	-8183
▁foods	-8184
▁tensions	-8185
▁King	-8186
▁suscep	-8187
▁mortgage	-8188
▁illum	-8189
хи	-8190
рии	-8191
elong	-8192
▁departments	-8193
▁призна	-8194
▁tastes	-8195
▁разлика	-8196
▁consists	-8197
▁underm	-8198
▁magn	-8199
▁drawn	-8200
▁adapting	-8201
▁chat	-8202
▁wider	-8203
▁quanti	-8204
bing	-8205
▁gradu	-8206
▁Long	-8207
ica	-8208
izz	-8209
сок	-8210
▁navigation	-8211
▁indis	-8212
▁intros	-8213
▁hurd	-8214
▁objective	-8215
▁perseverance	-8216
forward	-8217
gettable	-8218
▁setup	-8219
▁painting	-8220
▁disparities	-8221
▁денот	-8222
▁илја	-8223
▁predict	-8224
▁relatively	-8225
▁hinder	-8226
▁posts	-8227
▁segments	-8228
▁guarantee	-8229
▁caters	-8230
▁изра	-8231
▁expected	-8232
▁locally	-8233
ОТ	-8234
▁notice	-8235
▁compris	-8236
arsh	-8237
раме	-8238
CT	-8239
▁diagnostic	-8240
▁надвореш	-8241
▁equally	-8242
▁врати	-8243
pensable	-8244
ello	-8245
ДПМНЕ	-8246
▁scrut	-8247
▁convenient	-8248
▁fru	-8249
opol	-8250
▁dimin	-8251
▁intense	-8252
сиона	-8253
▁give	-8254
▁shown	-8255
▁reb	-8256
▁Empowerment	-8257
▁оства	-8258
▁Californ	-8259
▁pit	-8260
▁carries	-8261
▁употреба	-8262
▁едноста	-8263
▁започна	-8264
▁дока	-8265
ker	-8266
▁неговите	-8267
▁obligations	-8268
▁aging	-8269
▁вид	-8270
▁дозна	-8271
ta	-8272
notch	-8273
▁Ther	-8274
▁поми	-8275
рки	-8276
▁completion	-8277
▁subjects	-8278
цу	-8279
▁истражува	-8280
ictures	-8281
▁rule	-8282
▁obtain	-8283
▁заедни	-8284
▁transaction	-8285
▁Other	-8286
▁raising	-8287
▁celebrate	-8288
▁Water	-8289
PC	-8290
otypes	-8291
▁discipline	-8292
▁expressions	-8293
▁Ло	-8294
▁Sal	-8295
▁acceptance	-8296
▁repair	-8297
▁functionalities	-8298
▁случува	-8299
▁stem	-8300
▁Objec	-8301
▁Always	-8302
▁mastery	-8303
▁embarking	-8304
▁Pharmaceutical	-8305
ifts	-8306
▁Econom	-8307
▁initiative	-8308
▁promotional	-8309
▁Regardless	-8310
▁СО	-8311
лизација	-8312
▁indispensable	-8313
друже	-8314
▁scenes	-8315
▁figure	-8316
▁contains	-8317
▁кла	-8318
▁времето	-8319
brace	-8320
▁започ	-8321
▁Experi	-8322
▁coordination	-8323
▁influential	-8324
▁Министерството	-8325
▁franch	-8326
iation	-8327
▁picture	-8328
▁electrical	-8329
adv	-8330
▁Rest	-8331
▁eventually	-8332
▁здравје	-8333
▁специја	-8334
▁активности	-8335
▁configuration	-8336
oving	-8337
asonal	-8338
▁switch	-8339
▁Deb	-8340
▁rent	-8341
depth	-8342
▁societies	-8343
▁celebrating	-8344
▁куќа	-8345
▁produced	-8346
▁English	-8347
▁reinforcing	-8348
рување	-8349
▁round	-8350
▁deals	-8351
лното	-8352
▁зави	-8353
onym	-8354
▁Cloud	-8355
▁Таа	-8356
▁fish	-8357
'.	-8358
цна	-8359
▁worry	-8360
▁uniform	-8361
▁although	-8362
нското	-8363
rations	-8364
▁drives	-8365
▁suggesting	-8366
keep	-8367
▁retain	-8368
▁bringing	-8369
SD	-8370
▁confidential	-8371
▁kitchen	-8372
▁organized	-8373
IT	-8374
▁princip	-8375
▁заед	-8376
▁fluctuations	-8377
▁servers	-8378
▁Maintaining	-8379
ourage	-8380
конот	-8381
▁Срби	-8382
▁dance	-8383
▁cin	-8384
cel	-8385
▁Skills	-8386
▁▁▁	-8387
рми	-8388
▁Invest	-8389
▁cos	-8390
▁аген	-8391
ново	-8392
▁releases	-8393
онот	-8394
▁Свет	-8395
avering	-8396
талија	-8397
▁почетокот	-8398
amiliar	-8399
▁requests	-8400
▁dentist	-8401
▁иско	-8402
▁testim	-8403
▁уста	-8404
▁Mag	-8405
▁Do	-8406
▁earth	-8407
▁прифа	-8408
▁achieved	-8409
дено	-8410
▁граѓани	-8411
▁suffering	-8412
мор	-8413
uding	-8414
▁milestones	-8415
▁double	-8416
tw	-8417
perform	-8418
▁normal	-8419
▁favorable	-8420
▁leader	-8421
▁placed	-8422
marks	-8423
▁origins	-8424
▁твр	-8425
▁prioritizing	-8426
▁holid	-8427
▁stable	-8428
entists	-8429
гина	-8430
▁тради	-8431
▁coast	-8432
▁indicating	-8433
uming	-8434
▁cohesive	-8435
▁дија	-8436
▁unwavering	-8437
▁режи	-8438
▁accommodate	-8439
▁Amazon	-8440
▁adverse	-8441
BT	-8442
levision	-8443
лци	-8444
▁tight	-8445
▁relative	-8446
▁advocating	-8447
▁Tour	-8448
ruption	-8449
▁имаме	-8450
▁никогаш	-8451
▁Defining	-8452
▁четири	-8453
▁encountered	-8454
▁Hot	-8455
▁warrant	-8456
▁разговор	-8457
▁Prioriti	-8458
▁proteins	-8459
▁club	-8460
▁затво	-8461
▁limiting	-8462
authorized	-8463
▁recording	-8464
▁stere	-8465
verse	-8466
ВЕ	-8467
resent	-8468
▁passing	-8469
▁Discussion	-8470
▁исти	-8471
ama	-8472
▁видео	-8473
▁bat	-8474
arious	-8475
▁Offering	-8476
year	-8477
▁noise	-8478
icken	-8479
▁наја	-8480
▁straightforward	-8481
▁Comple	-8482
▁covering	-8483
mers	-8484
▁transparent	-8485
▁displ	-8486
▁пишува	-8487
▁California	-8488
кла	-8489
▁script	-8490
▁unfamiliar	-8491
▁допаѓа	-8492
▁Mal	-8493
▁Раз	-8494
ливи	-8495
▁проект	-8496
▁filter	-8497
▁incons	-8498
▁drivers	-8499
▁nurs	-8500
roc	-8501
▁коле	-8502
▁придо	-8503
▁workflows	-8504
▁Битола	-8505
▁новиот	-8506
▁utility	-8507
▁blending	-8508
▁Environmental	-8509
вина	-8510
ветот	-8511
▁prime	-8512
▁СД	-8513
▁hop	-8514
▁ecosystems	-8515
▁meticulously	-8516
rees	-8517
▁Vide	-8518
▁quarter	-8519
▁German	-8520
▁speech	-8521
▁Алек	-8522
▁agric	-8523
iable	-8524
▁institution	-8525
▁discl	-8526
▁poses	-8527
▁имаше	-8528
▁информи	-8529
▁bold	-8530
AP	-8531
циони	-8532
▁believe	-8533
▁Sym	-8534
▁board	-8535
▁depression	-8536
▁unforgettable	-8537
▁administrative	-8538
мисија	-8539
сијата	-8540
ench	-8541
▁стана	-8542
▁денеш	-8543
▁mov	-8544
▁прашање	-8545
▁fulfilling	-8546
front	-8547
дност	-8548
▁observ	-8549
▁manifest	-8550
▁databases	-8551
amb	-8552
aint	-8553
▁тема	-8554
▁двете	-8555
ressions	-8556
ктомври	-8557
▁communications	-8558
▁update	-8559
▁Green	-8560
▁templ	-8561
▁legitim	-8562
▁attitudes	-8563
▁користат	-8564
▁НАТО	-8565
▁bow	-8566
▁speaking	-8567
ltimate	-8568
▁Embrace	-8569
iers	-8570
▁footpr	-8571
грани	-8572
▁pictures	-8573
▁specified	-8574
▁clubs	-8575
мани	-8576
occer	-8577
ara	-8578
▁included	-8579
тере	-8580
▁stones	-8581
▁Dri	-8582
▁proactively	-8583
▁практи	-8584
▁parameters	-8585
▁bug	-8586
▁safer	-8587
зона	-8588
▁artistry	-8589
▁spending	-8590
▁кола	-8591
▁feels	-8592
▁напо	-8593
entralized	-8594
▁Mid	-8595
▁донесе	-8596
▁sand	-8597
чуваат	-8598
▁spl	-8599
▁Paul	-8600
▁катего	-8601
дона	-8602
▁rev	-8603
▁disputes	-8604
▁тим	-8605
▁signal	-8606
iger	-8607
▁textures	-8608
▁гри	-8609
▁correctly	-8610
▁inventory	-8611
▁Comprehensive	-8612
▁turning	-8613
ximity	-8614
шат	-8615
ulty	-8616
гува	-8617
embly	-8618
▁category	-8619
јни	-8620
▁Da	-8621
▁marginalized	-8622
▁Ние	-8623
▁pick	-8624
▁чита	-8625
▁score	-8626
▁thing	-8627
erated	-8628
▁Advanced	-8629
▁experimentation	-8630
▁mechanics	-8631
▁globally	-8632
▁frequency	-8633
▁neighborhood	-8634
▁Share	-8635
arad	-8636
▁Fund	-8637
rete	-8638
▁parad	-8639
▁hiring	-8640
▁целосно	-8641
▁Managing	-8642
▁articles	-8643
IN	-8644
bersecurity	-8645
imp	-8646
▁Features	-8647
▁elegance	-8648
▁recycl	-8649
▁acquiring	-8650
▁resonates	-8651
▁prosper	-8652
....	-8653
▁gau	-8654
▁attack	-8655
▁accidents	-8656
▁listeners	-8657
▁Healthcare	-8658
made	-8659
▁autonomy	-8660
umn	-8661
▁Color	-8662
▁Consult	-8663
▁specializing	-8664
▁Here	-8665
▁reported	-8666
iant	-8667
жата	-8668
рајте	-8669
▁peak	-8670
▁vegetables	-8671
▁gap	-8672
▁therm	-8673
▁Доколку	-8674
▁striving	-8675
куваат	-8676
▁imagery	-8677
▁origin	-8678
▁celeb	-8679
pliance	-8680
▁Focus	-8681
▁referred	-8682
▁scheduling	-8683
▁bolster	-8684
▁la	-8685
▁therapies	-8686
▁Sy	-8687
▁Собра	-8688
▁долго	-8689
▁negotiations	-8690
medi	-8691
▁proposed	-8692
▁образование	-8693
▁Maintain	-8694
▁Monitoring	-8695
▁насо	-8696
wood	-8697
▁trials	-8698
▁persistent	-8699
▁медиуми	-8700
▁От	-8701
▁travels	-8702
сници	-8703
▁hyper	-8704
▁родите	-8705
▁adhere	-8706
бен	-8707
▁purchases	-8708
▁x	-8709
▁extreme	-8710
нга	-8711
диме	-8712
istan	-8713
▁paralle	-8714
лов	-8715
▁direction	-8716
слам	-8717
▁Sou	-8718
▁slightly	-8719
▁interfaces	-8720
▁House	-8721
▁Pric	-8722
▁овде	-8723
aining	-8724
▁warmth	-8725
▁miscon	-8726
▁refresh	-8727
▁groundbreaking	-8728
▁Mr	-8729
боте	-8730
▁ped	-8731
▁Tools	-8732
overing	-8733
▁prolong	-8734
▁Collaborative	-8735
▁plants	-8736
mic	-8737
▁begins	-8738
▁Европската	-8739
▁Examining	-8740
▁followers	-8741
▁encryption	-8742
▁Making	-8743
▁announce	-8744
▁политика	-8745
▁филм	-8746
▁gentle	-8747
ainless	-8748
▁discom	-8749
empt	-8750
сната	-8751
▁abst	-8752
▁Arti	-8753
▁leaves	-8754
▁West	-8755
▁транс	-8756
▁conservation	-8757
ВИДЕО	-8758
▁plug	-8759
▁Differ	-8760
▁paid	-8761
▁spect	-8762
▁compromise	-8763
▁session	-8764
▁возду	-8765
пен	-8766
▁neck	-8767
▁offic	-8768
▁организација	-8769
нај	-8770
oses	-8771
▁reliance	-8772
▁underscore	-8773
▁sti	-8774
▁variables	-8775
▁perfectly	-8776
чење	-8777
elfare	-8778
▁manufacturer	-8779
inery	-8780
▁featured	-8781
▁Providing	-8782
illa	-8783
obile	-8784
▁Platforms	-8785
▁films	-8786
▁joining	-8787
▁често	-8788
▁mac	-8789
▁bridge	-8790
▁Германија	-8791
▁native	-8792
falls	-8793
▁bran	-8794
▁published	-8795
мна	-8796
▁ред	-8797
tious	-8798
тера	-8799
▁cold	-8800
▁електро	-8801
увања	-8802
▁Create	-8803
▁artwork	-8804
▁posed	-8805
Fi	-8806
▁nearly	-8807
▁monthly	-8808
▁физи	-8809
нт	-8810
▁напа	-8811
▁crime	-8812
▁indeed	-8813
titive	-8814
▁Tex	-8815
▁household	-8816
▁еки	-8817
▁Plan	-8818
▁trauma	-8819
▁literacy	-8820
▁birth	-8821
стување	-8822
▁Physical	-8823
▁compounds	-8824
▁Ду	-8825
▁процен	-8826
МА	-8827
▁енергија	-8828
ju	-8829
▁crises	-8830
▁bond	-8831
▁recon	-8832
▁септември	-8833
▁веднаш	-8834
zy	-8835
▁првата	-8836
лник	-8837
CS	-8838
▁иден	-8839
▁поранеш	-8840
▁Docu	-8841
imming	-8842
▁underp	-8843
▁новата	-8844
▁intr	-8845
▁remin	-8846
▁layout	-8847
▁lifelong	-8848
arn	-8849
нуари	-8850
▁совет	-8851
agram	-8852
▁attempts	-8853
▁employers	-8854
ulties	-8855
▁blue	-8856
▁Повеќе	-8857
▁Western	-8858
▁trou	-8859
▁placement	-8860
▁instruments	-8861
стерот	-8862
▁unauthorized	-8863
cast	-8864
▁tum	-8865
▁води	-8866
▁charges	-8867
▁Sil	-8868
▁hurdles	-8869
вои	-8870
фр	-8871
▁notion	-8872
▁ште	-8873
▁packaging	-8874
▁manipulation	-8875
▁buying	-8876
▁pin	-8877
▁yoga	-8878
▁adm	-8879
▁domin	-8880
▁Законот	-8881
▁Evaluate	-8882
state	-8883
▁Arch	-8884
▁Industry	-8885
CD	-8886
itations	-8887
▁sett	-8888
▁discomfort	-8889
asure	-8890
abetes	-8891
▁Between	-8892
▁automatically	-8893
▁Fac	-8894
▁evolved	-8895
▁Општина	-8896
▁undergo	-8897
▁кило	-8898
▁texts	-8899
бре	-8900
▁fishing	-8901
▁Пи	-8902
efined	-8903
▁schedule	-8904
▁Will	-8905
▁symbols	-8906
▁rever	-8907
▁failures	-8908
▁Evolution	-8909
igen	-8910
▁started	-8911
▁Soci	-8912
▁професиона	-8913
ae	-8914
▁sent	-8915
ulent	-8916
донача	-8917
▁министер	-8918
тинг	-8919
▁иако	-8920
▁моби	-8921
▁Project	-8922
▁volati	-8923
▁reform	-8924
▁Услови	-8925
▁scope	-8926
СТ	-8927
▁втор	-8928
▁hazards	-8929
weight	-8930
▁добие	-8931
▁interplay	-8932
▁смрт	-8933
▁pure	-8934
ulum	-8935
▁bright	-8936
рг	-8937
нец	-8938
▁controlled	-8939
▁stored	-8940
step	-8941
▁Стру	-8942
rome	-8943
▁дне	-8944
▁recruitment	-8945
▁insuff	-8946
▁attendees	-8947
▁solar	-8948
entials	-8949
▁typical	-8950
▁Armed	-8951
roid	-8952
тови	-8953
▁живее	-8954
говара	-8955
▁defin	-8956
orically	-8957
▁mathema	-8958
!!	-8959
▁fraud	-8960
▁venture	-8961
▁complementary	-8962
▁простор	-8963
unt	-8964
кември	-8965
▁топ	-8966
▁Вар	-8967
araderie	-8968
aping	-8969
market	-8970
cohol	-8971
▁Dive	-8972
▁Reduc	-8973
▁Choose	-8974
▁package	-8975
▁gun	-8976
▁town	-8977
▁candidate	-8978
etic	-8979
▁outcome	-8980
▁Advantages	-8981
▁African	-8982
▁observed	-8983
▁worship	-8984
▁attractions	-8985
▁uph	-8986
▁narrow	-8987
▁кру	-8988
▁лично	-8989
▁сезона	-8990
sue	-8991
▁reference	-8992
▁Lessons	-8993
▁attracting	-8994
▁authentication	-8995
нета	-8996
▁firsthand	-8997
utter	-8998
idation	-8999
вник	-9000
▁СДСМ	-9001
▁driven	-9002
ketball	-9003
гијата	-9004
▁Ге	-9005
osit	-9006
▁liber	-9007
▁parent	-9008
▁imaging	-9009
▁пис	-9010
▁####	-9011
▁Authentic	-9012
▁surroundings	-9013
▁functioning	-9014
▁Allow	-9015
▁attempting	-9016
▁promotion	-9017
rict	-9018
▁writers	-9019
▁продолжи	-9020
▁currently	-9021
▁Leadership	-9022
▁Neg	-9023
▁Story	-9024
▁дипло	-9025
▁Emerg	-9026
▁codes	-9027
quisite	-9028
▁избори	-9029
▁kn	-9030
▁concl	-9031
▁Србија	-9032
▁Product	-9033
Ex	-9034
ука	-9035
▁потен	-9036
▁overview	-9037
▁Trends	-9038
▁disapp	-9039
▁Sched	-9040
▁Administ	-9041
▁Draw	-9042
▁Monitor	-9043
▁camaraderie	-9044
▁going	-9045
▁consent	-9046
▁rendering	-9047
▁македонската	-9048
▁eyes	-9049
▁realistic	-9050
▁sustained	-9051
дум	-9052
▁vigilant	-9053
▁motivations	-9054
▁Organizations	-9055
▁zones	-9056
голе	-9057
▁print	-9058
ille	-9059
▁neighb	-9060
disc	-9061
▁editing	-9062
▁Сто	-9063
oon	-9064
▁peer	-9065
▁споде	-9066
▁Јас	-9067
▁sourcing	-9068
▁уред	-9069
▁frequent	-9070
▁delightful	-9071
▁toler	-9072
▁useful	-9073
iff	-9074
using	-9075
▁Indi	-9076
▁architectural	-9077
SO	-9078
▁препора	-9079
док	-9080
ictions	-9081
---------------	-9082
▁сајт	-9083
ксу	-9084
▁San	-9085
▁profitability	-9086
▁HR	-9087
▁ske	-9088
тивен	-9089
▁guest	-9090
▁Уни	-9091
▁Determ	-9092
▁срце	-9093
▁proven	-9094
▁actually	-9095
▁introduction	-9096
▁ster	-9097
▁фору	-9098
▁baking	-9099
▁continuity	-9100
iology	-9101
▁exchanges	-9102
▁missing	-9103
▁introspection	-9104
УВА	-9105
▁vacation	-9106
▁ign	-9107
зата	-9108
▁успеа	-9109
▁catch	-9110
▁considerable	-9111
▁Div	-9112
urious	-9113
itigation	-9114
QL	-9115
нички	-9116
ocolate	-9117
▁butter	-9118
▁revealing	-9119
▁Pr	-9120
пата	-9121
▁enjoyment	-9122
lo	-9123
дина	-9124
▁Sustain	-9125
ЕД	-9126
▁traction	-9127
▁impacting	-9128
▁овозможува	-9129
▁ог	-9130
lean	-9131
рено	-9132
▁obtaining	-9133
▁depends	-9134
▁influenc	-9135
▁judgment	-9136
▁took	-9137
▁Provide	-9138
ву	-9139
▁race	-9140
▁Video	-9141
▁decreased	-9142
uzz	-9143
▁bacter	-9144
▁say	-9145
▁сце	-9146
▁Pati	-9147
▁counseling	-9148
▁else	-9149
▁soon	-9150
▁ОД	-9151
rier	-9152
RO	-9153
▁quan	-9154
▁measuring	-9155
▁tur	-9156
▁egg	-9157
▁пог	-9158
▁residential	-9159
rants	-9160
▁entering	-9161
▁уло	-9162
леп	-9163
▁duration	-9164
▁setbacks	-9165
▁pressures	-9166
▁breast	-9167
▁welfare	-9168
▁simplicity	-9169
▁единстве	-9170
umph	-9171
▁Current	-9172
▁enterprises	-9173
▁arom	-9174
▁pharm	-9175
▁Uk	-9176
▁преда	-9177
▁Sharing	-9178
▁reminisc	-9179
▁rooms	-9180
▁criticism	-9181
▁designated	-9182
▁Rich	-9183
▁incentives	-9184
arc	-9185
▁Virtual	-9186
▁comparing	-9187
▁detect	-9188
▁Enhanced	-9189
кување	-9190
▁Chapter	-9191
▁fewer	-9192
▁medication	-9193
▁hygi	-9194
оло	-9195
▁обвр	-9196
▁решение	-9197
emy	-9198
press	-9199
▁лесно	-9200
ЛА	-9201
Com	-9202
▁Acad	-9203
▁arising	-9204
▁talented	-9205
▁Individual	-9206
▁sen	-9207
▁Fre	-9208
▁Need	-9209
▁gast	-9210
▁подобр	-9211
▁достап	-9212
▁Груевски	-9213
▁agreement	-9214
▁dual	-9215
▁покажа	-9216
нд	-9217
▁valued	-9218
▁Earth	-9219
▁strain	-9220
ниве	-9221
▁полу	-9222
тување	-9223
▁stret	-9224
▁encaps	-9225
▁стандар	-9226
▁prevalent	-9227
▁descriptions	-9228
▁Sales	-9229
▁penalties	-9230
▁universities	-9231
лабо	-9232
▁intuitive	-9233
▁месец	-9234
▁advis	-9235
деле	-9236
▁tick	-9237
▁engineers	-9238
iat	-9239
▁Mor	-9240
▁ce	-9241
▁immun	-9242
▁Mechan	-9243
лива	-9244
▁distress	-9245
▁служ	-9246
▁libraries	-9247
▁executing	-9248
▁coping	-9249
▁titles	-9250
ампи	-9251
▁cast	-9252
▁Partners	-9253
▁Mast	-9254
▁промена	-9255
▁Comparison	-9256
▁necessitate	-9257
брите	-9258
makers	-9259
▁Phot	-9260
хот	-9261
ractions	-9262
▁фестива	-9263
▁инду	-9264
ieties	-9265
▁некоја	-9266
▁Poli	-9267
▁fluid	-9268
кен	-9269
мети	-9270
▁searching	-9271
▁Value	-9272
▁Ал	-9273
do	-9274
▁мото	-9275
▁renewable	-9276
▁Target	-9277
erts	-9278
уваме	-9279
▁urg	-9280
▁streaming	-9281
никот	-9282
▁existence	-9283
▁cues	-9284
idence	-9285
▁opens	-9286
struction	-9287
▁Фа	-9288
pecific	-9289
оби	-9290
ergies	-9291
ментар	-9292
▁insufficient	-9293
▁stated	-9294
▁succeed	-9295
ading	-9296
▁среќа	-9297
▁click	-9298
▁paying	-9299
▁completing	-9300
FA	-9301
▁соод	-9302
▁integrate	-9303
бина	-9304
▁Балка	-9305
▁Fostering	-9306
estled	-9307
лникот	-9308
▁marks	-9309
▁controlling	-9310
рват	-9311
▁dissem	-9312
▁retirement	-9313
▁---	-9314
▁pursuits	-9315
▁County	-9316
▁remove	-9317
▁instruction	-9318
штите	-9319
▁wedding	-9320
▁interior	-9321
Is	-9322
▁("	-9323
▁raise	-9324
uster	-9325
▁gri	-9326
▁Inters	-9327
cil	-9328
▁stic	-9329
throp	-9330
▁difficulties	-9331
phone	-9332
▁datas	-9333
▁recreational	-9334
ipe	-9335
▁displays	-9336
▁belonging	-9337
▁meaningfully	-9338
ham	-9339
exts	-9340
riage	-9341
icks	-9342
лер	-9343
eles	-9344
▁electron	-9345
▁surgery	-9346
bly	-9347
▁shaped	-9348
▁virus	-9349
▁обле	-9350
▁runs	-9351
▁Crypt	-9352
▁денови	-9353
▁adjusting	-9354
vy	-9355
лност	-9356
alg	-9357
кво	-9358
▁liquid	-9359
▁interpretations	-9360
dens	-9361
▁пријатели	-9362
▁substances	-9363
▁diet	-9364
▁Start	-9365
▁конку	-9366
▁borders	-9367
▁caution	-9368
▁средства	-9369
▁combinations	-9370
▁illness	-9371
▁falls	-9372
▁Strength	-9373
▁жена	-9374
▁можеби	-9375
▁fairness	-9376
alities	-9377
дел	-9378
▁поба	-9379
▁removal	-9380
▁пријател	-9381
▁casual	-9382
▁оти	-9383
▁poly	-9384
▁prob	-9385
vement	-9386
▁Sever	-9387
ban	-9388
▁certainly	-9389
▁acknowledge	-9390
▁sanc	-9391
▁април	-9392
▁camera	-9393
building	-9394
▁Connection	-9395
▁translate	-9396
ерот	-9397
▁desires	-9398
▁analytical	-9399
сник	-9400
▁Ren	-9401
▁вести	-9402
ched	-9403
rary	-9404
кнете	-9405
▁infection	-9406
▁КО	-9407
▁bust	-9408
▁machinery	-9409
reach	-9410
▁transcends	-9411
▁edit	-9412
▁registration	-9413
баса	-9414
▁вчера	-9415
▁Africa	-9416
▁вашето	-9417
тов	-9418
шната	-9419
▁contributed	-9420
▁defined	-9421
лски	-9422
▁Together	-9423
▁proposition	-9424
ктура	-9425
▁legislation	-9426
ME	-9427
▁forg	-9428
▁relies	-9429
▁physically	-9430
▁drugs	-9431
▁stores	-9432
▁marketplace	-9433
▁released	-9434
▁ID	-9435
kers	-9436
▁provision	-9437
град	-9438
▁fol	-9439
▁состојба	-9440
▁evidenced	-9441
▁beautifully	-9442
eks	-9443
▁Об	-9444
▁помага	-9445
▁disorder	-9446
▁Prim	-9447
▁rewarding	-9448
comm	-9449
▁humility	-9450
*:	-9451
▁immerse	-9452
▁allocate	-9453
▁confusion	-9454
AN	-9455
▁испи	-9456
▁услуги	-9457
▁distance	-9458
▁drawbacks	-9459
ician	-9460
ritish	-9461
▁graphics	-9462
▁sacrificing	-9463
reast	-9464
▁задол	-9465
▁TV	-9466
▁grand	-9467
▁кафе	-9468
igenous	-9469
▁Crafts	-9470
▁таму	-9471
▁чека	-9472
▁properly	-9473
zed	-9474
јна	-9475
▁abreast	-9476
▁Improved	-9477
▁mechanism	-9478
▁gard	-9479
▁downtime	-9480
лици	-9481
▁работата	-9482
▁трго	-9483
▁phr	-9484
▁Fire	-9485
▁Components	-9486
▁автор	-9487
▁училиште	-9488
▁substance	-9489
шност	-9490
▁велат	-9491
▁actionable	-9492
atur	-9493
▁fulfillment	-9494
▁Adopting	-9495
▁Resources	-9496
стови	-9497
ниција	-9498
▁train	-9499
ил	-9500
▁ска	-9501
лница	-9502
▁equips	-9503
▁brush	-9504
▁Search	-9505
▁enjoyable	-9506
▁јуни	-9507
▁редо	-9508
▁banks	-9509
▁најголем	-9510
oxid	-9511
▁viewpoints	-9512
крат	-9513
нгли	-9514
▁Evaluating	-9515
oother	-9516
▁administrators	-9517
▁came	-9518
На	-9519
▁strategically	-9520
ears	-9521
▁thick	-9522
rest	-9523
▁synth	-9524
▁ужи	-9525
ствен	-9526
▁television	-9527
▁вто	-9528
▁помогне	-9529
▁средина	-9530
gue	-9531
qq	-9532
▁General	-9533
TP	-9534
ifting	-9535
▁grappling	-9536
▁discrimination	-9537
▁хра	-9538
▁feeding	-9539
▁работе	-9540
miss	-9541
▁lifes	-9542
▁raised	-9543
▁опера	-9544
▁familiarity	-9545
▁hotel	-9546
▁triumph	-9547
uilt	-9548
▁debate	-9549
▁fruits	-9550
▁disruptions	-9551
wards	-9552
▁ties	-9553
▁reass	-9554
▁Ca	-9555
▁Cer	-9556
▁nothing	-9557
▁општина	-9558
iol	-9559
AD	-9560
▁safeguard	-9561
urpose	-9562
вки	-9563
▁долари	-9564
▁acting	-9565
eat	-9566
▁Link	-9567
▁Conduc	-9568
▁Instagram	-9569
▁ju	-9570
udden	-9571
▁Нема	-9572
▁biases	-9573
презен	-9574
▁organizing	-9575
▁preservation	-9576
CE	-9577
▁socioeconomic	-9578
▁independently	-9579
▁prevents	-9580
▁Ital	-9581
inese	-9582
▁hing	-9583
▁confront	-9584
▁smoother	-9585
▁performers	-9586
▁очи	-9587
▁тво	-9588
▁weap	-9589
▁British	-9590
▁compatible	-9591
▁ii	-9592
▁epis	-9593
▁кажа	-9594
лобода	-9595
▁takeaways	-9596
▁Sam	-9597
▁Network	-9598
▁содржина	-9599
▁gatherings	-9600
IP	-9601
▁La	-9602
▁database	-9603
▁Familiarize	-9604
МЕ	-9605
▁defining	-9606
▁Change	-9607
▁conferences	-9608
▁Затоа	-9609
▁casting	-9610
▁exquisite	-9611
▁transformed	-9612
▁Clin	-9613
eal	-9614
ept	-9615
▁luxurious	-9616
▁affects	-9617
▁unwanted	-9618
▁Press	-9619
нта	-9620
▁ефе	-9621
▁Ris	-9622
▁cha	-9623
▁Treatment	-9624
ewhere	-9625
▁sauce	-9626
▁blocks	-9627
▁рамките	-9628
▁removing	-9629
▁sea	-9630
▁прво	-9631
▁French	-9632
▁maintains	-9633
▁Sen	-9634
▁близи	-9635
▁почеток	-9636
▁potent	-9637
▁Isl	-9638
▁lawy	-9639
▁achievement	-9640
▁demographic	-9641
▁League	-9642
▁keywords	-9643
▁fill	-9644
pace	-9645
▁expressing	-9646
HC	-9647
▁opposing	-9648
кар	-9649
метри	-9650
▁fiction	-9651
▁continuously	-9652
коло	-9653
▁download	-9654
ventive	-9655
▁molecular	-9656
aments	-9657
ki	-9658
▁faces	-9659
▁nucle	-9660
▁accompanied	-9661
▁мали	-9662
▁ly	-9663
mind	-9664
ковски	-9665
натата	-9666
чиси	-9667
▁upl	-9668
▁hypo	-9669
▁embed	-9670
▁updating	-9671
▁мар	-9672
stones	-9673
avior	-9674
▁grounded	-9675
▁eliminating	-9676
▁Depart	-9677
▁Journal	-9678
▁ави	-9679
▁Dynam	-9680
etheless	-9681
▁НЕ	-9682
▁ordinary	-9683
▁пол	-9684
▁struggling	-9685
▁Tal	-9686
▁feet	-9687
▁reminiscent	-9688
▁desirable	-9689
▁кур	-9690
▁направите	-9691
▁тело	-9692
▁visits	-9693
cell	-9694
isure	-9695
ropri	-9696
▁Consum	-9697
▁clothing	-9698
▁din	-9699
▁chains	-9700
▁rapport	-9701
profit	-9702
▁scalability	-9703
▁Ste	-9704
▁virt	-9705
▁Delving	-9706
▁Programs	-9707
▁associations	-9708
istant	-9709
▁жени	-9710
ierarch	-9711
▁proximity	-9712
rosion	-9713
▁rental	-9714
▁Software	-9715
▁Adjust	-9716
лес	-9717
liers	-9718
▁disrupt	-9719
▁Mind	-9720
▁evoke	-9721
▁анти	-9722
can	-9723
tier	-9724
▁replacement	-9725
▁ur	-9726
▁orders	-9727
rupt	-9728
▁vess	-9729
▁stewardship	-9730
▁preced	-9731
▁boast	-9732
ventional	-9733
▁enriching	-9734
▁supported	-9735
▁item	-9736
▁Ethical	-9737
▁fixed	-9738
▁seeks	-9739
▁четвр	-9740
пија	-9741
▁answer	-9742
▁fusion	-9743
▁album	-9744
▁Mem	-9745
umptions	-9746
▁вклучува	-9747
нда	-9748
▁Pal	-9749
▁cataly	-9750
ione	-9751
geoning	-9752
▁Це	-9753
▁Tur	-9754
▁abund	-9755
▁persist	-9756
▁universal	-9757
▁јануари	-9758
ovascular	-9759
▁ST	-9760
▁rac	-9761
▁Objectives	-9762
▁ring	-9763
вте	-9764
▁Пу	-9765
▁feas	-9766
▁emotion	-9767
fortunately	-9768
▁poised	-9769
▁Clean	-9770
▁spons	-9771
▁workplace	-9772
▁Spe	-9773
▁aiming	-9774
▁thread	-9775
▁modes	-9776
▁negatively	-9777
ka	-9778
▁можно	-9779
▁Summary	-9780
▁брзо	-9781
▁жените	-9782
▁competencies	-9783
iture	-9784
▁Тре	-9785
тивна	-9786
▁движе	-9787
▁politic	-9788
▁burgeoning	-9789
rated	-9790
▁stars	-9791
▁Players	-9792
▁потро	-9793
▁pursue	-9794
yses	-9795
▁theories	-9796
▁Sing	-9797
▁Family	-9798
▁vigilance	-9799
▁od	-9800
▁collecting	-9801
▁Ос	-9802
вањето	-9803
▁Windows	-9804
▁representatives	-9805
▁portfolio	-9806
▁institutional	-9807
▁sin	-9808
▁Only	-9809
▁filters	-9810
▁tourists	-9811
твор	-9812
▁Interesting	-9813
▁done	-9814
▁diagnosis	-9815
▁Compe	-9816
▁Every	-9817
▁шампи	-9818
▁bus	-9819
▁Incl	-9820
кр	-9821
▁bath	-9822
ya	-9823
▁вод	-9824
▁земјоде	-9825
▁influenced	-9826
▁frag	-9827
▁ultimate	-9828
▁Net	-9829
▁pow	-9830
▁објекти	-9831
сира	-9832
▁gauge	-9833
▁доволно	-9834
▁moral	-9835
▁токму	-9836
▁chef	-9837
▁Final	-9838
▁Зошто	-9839
▁female	-9840
▁observe	-9841
▁register	-9842
▁прити	-9843
▁декември	-9844
▁surge	-9845
▁independence	-9846
▁End	-9847
▁Bible	-9848
▁seasonal	-9849
▁advocate	-9850
ested	-9851
▁summer	-9852
pression	-9853
tionality	-9854
men	-9855
▁Interestingly	-9856
ologists	-9857
▁Period	-9858
▁Insurance	-9859
Press	-9860
▁извешта	-9861
▁моли	-9862
▁Brid	-9863
▁signifies	-9864
eu	-9865
▁festiv	-9866
▁plastic	-9867
▁закон	-9868
▁политички	-9869
▁Вардар	-9870
▁страте	-9871
▁elections	-9872
▁secondary	-9873
Wor	-9874
▁thin	-9875
▁pod	-9876
штата	-9877
▁establishments	-9878
▁enterprise	-9879
▁Assessment	-9880
▁worlds	-9881
▁doll	-9882
▁Analytics	-9883
вате	-9884
▁histories	-9885
▁misunder	-9886
▁procedure	-9887
▁креа	-9888
▁spots	-9889
▁contempl	-9890
▁isolation	-9891
▁Сепак	-9892
▁coding	-9893
▁канди	-9894
▁Кри	-9895
▁gently	-9896
▁близина	-9897
▁Accessibility	-9898
често	-9899
▁bot	-9900
шните	-9901
▁emails	-9902
сигу	-9903
▁истакна	-9904
ocal	-9905
▁moves	-9906
▁supplement	-9907
▁Ill	-9908
▁consulting	-9909
mark	-9910
▁surg	-9911
▁Niger	-9912
▁globe	-9913
живе	-9914
ppers	-9915
▁humble	-9916
ste	-9917
▁Fram	-9918
cedented	-9919
▁Хри	-9920
▁Production	-9921
▁наред	-9922
руари	-9923
▁habit	-9924
▁insur	-9925
▁unfold	-9926
▁безбедно	-9927
▁искуство	-9928
▁предизвика	-9929
▁Мај	-9930
▁capitalize	-9931
увам	-9932
▁Also	-9933
▁authors	-9934
▁помалку	-9935
▁accounting	-9936
isely	-9937
▁Trump	-9938
▁праве	-9939
▁beginning	-9940
▁snow	-9941
▁continually	-9942
чар	-9943
▁вкуп	-9944
position	-9945
гита	-9946
мати	-9947
▁Isra	-9948
▁standout	-9949
igned	-9950
▁harsh	-9951
▁самиот	-9952
▁▁▁▁▁	-9953
erning	-9954
▁Претседа	-9955
▁ке	-9956
▁classroom	-9957
циски	-9958
▁секојдне	-9959
▁alt	-9960
▁Italian	-9961
▁prosperity	-9962
▁Mer	-9963
▁ноември	-9964
▁childhood	-9965
▁assumptions	-9966
▁слика	-9967
iral	-9968
▁cybersecurity	-9969
exic	-9970
▁Универзите	-9971
▁прав	-9972
зер	-9973
дуваат	-9974
ielding	-9975
▁одговорност	-9976
фон	-9977
▁league	-9978
▁Options	-9979
▁streamlining	-9980
chron	-9981
▁Increased	-9982
зот	-9983
rafted	-9984
▁corresponding	-9985
BC	-9986
aser	-9987
▁cyber	-9988
▁делови	-9989
▁customs	-9990
сните	-9991
▁Алекса	-9992
▁charming	-9993
▁трет	-9994
▁sharp	-9995
▁Active	-9996
▁browsing	-9997
apers	-9998
▁contam	-9999
▁workforce	-10000
▁игри	-10001
▁одржи	-10002
▁winter	-10003
▁anticipate	-10004
▁н	-10005
нче	-10006
▁појави	-10007
▁hospitality	-10008
US	-10009
▁Rights	-10010
▁knows	-10011
▁апликација	-10012
▁размис	-10013
check	-10014
▁областа	-10015
▁liability	-10016
▁ат	-10017
▁contexts	-10018
▁Most	-10019
▁yields	-10020
▁Recently	-10021
▁unprecedented	-10022
▁каже	-10023
кнува	-10024
▁Cour	-10025
▁Activ	-10026
▁Jewelry	-10027
▁Syn	-10028
▁поне	-10029
▁object	-10030
AI	-10031
cean	-10032
▁Само	-10033
СКИ	-10034
▁hygiene	-10035
overs	-10036
▁forec	-10037
oil	-10038
▁net	-10039
▁Chinese	-10040
▁victims	-10041
opolitical	-10042
discovery	-10043
▁List	-10044
▁нивниот	-10045
onymous	-10046
▁подобро	-10047
umps	-10048
▁Prep	-10049
▁Adapt	-10050
▁marvel	-10051
▁Никола	-10052
▁Sl	-10053
▁fib	-10054
iders	-10055
▁route	-10056
▁ul	-10057
atable	-10058
ulates	-10059
ws	-10060
кол	-10061
▁prompting	-10062
▁enthusiasm	-10063
тин	-10064
▁воде	-10065
▁Иако	-10066
▁фотографии	-10067
▁Alternatively	-10068
▁дале	-10069
▁revol	-10070
▁intimate	-10071
▁Собранието	-10072
▁безбедност	-10073
▁дела	-10074
▁mountain	-10075
▁резултат	-10076
▁репрезен	-10077
ords	-10078
▁earrings	-10079
▁decentralized	-10080
▁dro	-10081
====	-10082
▁oils	-10083
▁picturesque	-10084
▁willingness	-10085
emost	-10086
▁Држа	-10087
▁adorn	-10088
▁Assessing	-10089
▁neut	-10090
▁worthy	-10091
▁досега	-10092
▁monetary	-10093
vin	-10094
▁првен	-10095
▁counsel	-10096
▁stereotypes	-10097
▁Phil	-10098
▁bear	-10099
▁illustrating	-10100
▁connectivity	-10101
anks	-10102
▁Pack	-10103
tigious	-10104
▁носи	-10105
▁damages	-10106
▁----------	-10107
▁accomplishments	-10108
▁Bud	-10109
▁accident	-10110
▁потребно	-10111
▁Light	-10112
▁беспла	-10113
▁responsive	-10114
▁effortlessly	-10115
▁philosophy	-10116
▁Стра	-10117
▁surgical	-10118
found	-10119
▁metab	-10120
▁соопшти	-10121
▁часа	-10122
▁election	-10123
▁Relationships	-10124
▁salt	-10125
▁trial	-10126
▁sourced	-10127
tiqu	-10128
piece	-10129
▁mixed	-10130
▁Ива	-10131
министра	-10132
Script	-10133
▁Small	-10134
▁момент	-10135
▁queries	-10136
▁credentials	-10137
▁agent	-10138
itarian	-10139
eding	-10140
времено	-10141
▁Behind	-10142
▁exceed	-10143
oors	-10144
евруари	-10145
Не	-10146
▁Twitter	-10147
▁honing	-10148
▁appropriately	-10149
ленови	-10150
▁wrong	-10151
▁попула	-10152
▁rankings	-10153
▁psychology	-10154
▁solidifying	-10155
соб	-10156
thetic	-10157
▁intake	-10158
▁friendly	-10159
▁naturally	-10160
▁emotionally	-10161
▁waves	-10162
▁страница	-10163
мни	-10164
▁Зна	-10165
▁resilient	-10166
RP	-10167
▁Move	-10168
EC	-10169
▁факулте	-10170
▁expanded	-10171
▁коло	-10172
ny	-10173
▁embedded	-10174
▁pitfalls	-10175
сат	-10176
unk	-10177
▁alcohol	-10178
▁неговото	-10179
рал	-10180
▁coach	-10181
сниците	-10182
▁eating	-10183
asures	-10184
▁label	-10185
terior	-10186
▁verify	-10187
новски	-10188
▁inequ	-10189
▁Corpor	-10190
▁locals	-10191
▁односи	-10192
рење	-10193
▁cheese	-10194
otherapy	-10195
▁prolonged	-10196
▁facility	-10197
▁Бугарија	-10198
▁Bro	-10199
▁plenty	-10200
▁Natural	-10201
▁Него	-10202
▁текст	-10203
▁благода	-10204
▁committing	-10205
▁Македонски	-10206
Pro	-10207
▁Lib	-10208
apped	-10209
▁appointments	-10210
ona	-10211
World	-10212
▁конце	-10213
▁police	-10214
несување	-10215
lin	-10216
▁degrees	-10217
▁Sun	-10218
▁Good	-10219
▁deployment	-10220
rick	-10221
ida	-10222
▁задр	-10223
▁однесува	-10224
▁Old	-10225
ravel	-10226
▁systemic	-10227
▁Canada	-10228
▁заради	-10229
▁weeks	-10230
штво	-10231
▁кар	-10232
кторот	-10233
▁Многу	-10234
▁реализи	-10235
▁UK	-10236
▁powers	-10237
▁keeps	-10238
▁trigger	-10239
▁октомври	-10240
rab	-10241
▁wines	-10242
▁discrep	-10243
▁invites	-10244
▁Fortunately	-10245
▁Под	-10246
сушност	-10247
тали	-10248
▁Due	-10249
▁safely	-10250
▁Culture	-10251
omb	-10252
▁routes	-10253
▁prestigious	-10254
aught	-10255
▁cycl	-10256
ints	-10257
▁непо	-10258
▁description	-10259
▁structured	-10260
▁вку	-10261
визија	-10262
uge	-10263
▁openness	-10264
.”	-10265
my	-10266
густ	-10267
▁поврзани	-10268
▁discerning	-10269
▁aligning	-10270
▁организации	-10271
јс	-10272
▁вечер	-10273
▁happiness	-10274
anguage	-10275
▁Various	-10276
▁учествува	-10277
▁Алба	-10278
▁бло	-10279
▁analyses	-10280
▁eligibility	-10281
▁experiential	-10282
En	-10283
▁Check	-10284
▁најде	-10285
orter	-10286
▁rough	-10287
жните	-10288
▁conventions	-10289
aven	-10290
▁winning	-10291
ora	-10292
▁mistakes	-10293
▁necessarily	-10294
aby	-10295
▁upholding	-10296
ref	-10297
▁Cam	-10298
ваме	-10299
night	-10300
lective	-10301
▁developer	-10302
ocation	-10303
▁evident	-10304
▁collected	-10305
▁celebration	-10306
теристи	-10307
ulatory	-10308
кса	-10309
▁зло	-10310
▁Mexic	-10311
▁timing	-10312
▁Mac	-10313
▁propor	-10314
▁Present	-10315
▁discern	-10316
▁supplies	-10317
▁Promoting	-10318
netic	-10319
atial	-10320
▁compact	-10321
▁Log	-10322
endant	-10323
гото	-10324
▁portion	-10325
▁momentum	-10326
▁asking	-10327
▁diabetes	-10328
▁Contemporary	-10329
overty	-10330
▁експе	-10331
▁разви	-10332
▁solace	-10333
▁accommodation	-10334
▁neu	-10335
▁muscles	-10336
▁aggressive	-10337
▁distributed	-10338
▁Direc	-10339
ensional	-10340
▁qualified	-10341
▁Continuous	-10342
▁discovering	-10343
▁cong	-10344
▁Several	-10345
▁Премини	-10346
▁operators	-10347
▁рок	-10348
▁economies	-10349
▁потреба	-10350
▁комуника	-10351
лити	-10352
▁deser	-10353
ionship	-10354
pack	-10355
▁Rad	-10356
▁milk	-10357
▁Company	-10358
▁Emotional	-10359
▁Nonetheless	-10360
rane	-10361
▁glean	-10362
▁compositions	-10363
ini	-10364
лим	-10365
▁correc	-10366
▁Зо	-10367
▁attempt	-10368
▁Structure	-10369
▁Free	-10370
▁securely	-10371
▁ram	-10372
▁appar	-10373
▁профи	-10374
▁homeown	-10375
интере	-10376
▁pul	-10377
▁meat	-10378
▁Вести	-10379
▁презен	-10380
▁concrete	-10381
гор	-10382
▁надвор	-10383
▁democracy	-10384
▁Nar	-10385
пски	-10386
▁Beg	-10387
blesh	-10388
▁auto	-10389
▁Democ	-10390
▁живеење	-10391
▁Меѓународ	-10392
▁stop	-10393
advantages	-10394
ipher	-10395
▁crisp	-10396
▁серио	-10397
▁percentage	-10398
шката	-10399
▁exposed	-10400
▁expensive	-10401
▁Though	-10402
▁critics	-10403
▁темпера	-10404
▁Gre	-10405
▁pregn	-10406
▁leisure	-10407
▁equip	-10408
▁stainless	-10409
▁applicants	-10410
општо	-10411
col	-10412
raine	-10413
Ph	-10414
квата	-10415
anqu	-10416
▁март	-10417
▁trail	-10418
▁immersion	-10419
▁Unfortunately	-10420
▁sample	-10421
▁мрежи	-10422
ФО	-10423
alse	-10424
▁doub	-10425
onials	-10426
▁checking	-10427
▁survival	-10428
▁утвр	-10429
▁Computer	-10430
▁earning	-10431
▁biological	-10432
unch	-10433
▁карие	-10434
▁scoring	-10435
abil	-10436
▁опа	-10437
▁covers	-10438
▁постојано	-10439
▁pathways	-10440
▁intensity	-10441
ствата	-10442
▁поната	-10443
▁suppliers	-10444
gu	-10445
▁историјата	-10446
рамп	-10447
▁медици	-10448
ensus	-10449
▁најма	-10450
▁последните	-10451
atigue	-10452
▁stepping	-10453
▁sophistication	-10454
yth	-10455
▁NFL	-10456
▁mild	-10457
▁steep	-10458
▁иднина	-10459
▁filling	-10460
▁passionate	-10461
▁professionally	-10462
▁collectively	-10463
гат	-10464
odies	-10465
▁holiday	-10466
▁antioxid	-10467
▁scientists	-10468
▁Wal	-10469
▁градови	-10470
▁satisfying	-10471
▁preference	-10472
вез	-10473
▁расте	-10474
▁шан	-10475
▁reminders	-10476
▁responding	-10477
▁dw	-10478
▁rub	-10479
▁appreciating	-10480
icates	-10481
▁billion	-10482
рок	-10483
▁прават	-10484
▁дефи	-10485
▁суди	-10486
▁magic	-10487
▁commitments	-10488
▁Bay	-10489
▁првите	-10490
▁curious	-10491
▁perpetu	-10492
▁advancement	-10493
ал	-10494
▁cab	-10495
▁компју	-10496
▁hers	-10497
▁Intersection	-10498
olism	-10499
▁neuro	-10500
▁establishment	-10501
▁Ги	-10502
▁uncon	-10503
▁ads	-10504
▁tender	-10505
▁Vers	-10506
ствуваат	-10507
▁Evaluation	-10508
▁representations	-10509
енти	-10510
▁ethn	-10511
specific	-10512
▁durable	-10513
DR	-10514
▁Line	-10515
▁named	-10516
▁validation	-10517
drop	-10518
▁speakers	-10519
▁Department	-10520
▁Ing	-10521
ricket	-10522
▁shall	-10523
▁програмата	-10524
По	-10525
тки	-10526
puts	-10527
▁ника	-10528
▁соби	-10529
▁concise	-10530
вре	-10531
▁pra	-10532
▁вие	-10533
▁сло	-10534
▁hierarch	-10535
▁constructing	-10536
▁walls	-10537
▁metaph	-10538
▁guided	-10539
ado	-10540
▁bone	-10541
рација	-10542
▁migration	-10543
DF	-10544
▁Block	-10545
▁Explore	-10546
▁corrosion	-10547
▁Gal	-10548
▁речиси	-10549
▁emergencies	-10550
▁shipping	-10551
уба	-10552
▁operates	-10553
▁degra	-10554
▁sensory	-10555
▁extending	-10556
dict	-10557
чена	-10558
▁Polic	-10559
▁confron	-10560
▁delving	-10561
▁title	-10562
▁perman	-10563
▁собра	-10564
▁Measures	-10565
RI	-10566
БА	-10567
▁menu	-10568
▁fiber	-10569
▁walking	-10570
elp	-10571
▁comment	-10572
▁White	-10573
▁driver	-10574
▁historic	-10575
▁дом	-10576
▁David	-10577
▁главната	-10578
▁истори	-10579
ato	-10580
erals	-10581
▁bread	-10582
▁revis	-10583
▁vivid	-10584
▁therefore	-10585
▁incredible	-10586
▁ДО	-10587
icking	-10588
habilit	-10589
▁comprehend	-10590
пле	-10591
omin	-10592
▁Performing	-10593
▁Being	-10594
▁comments	-10595
reek	-10596
▁burn	-10597
▁добра	-10598
▁партнер	-10599
▁Politics	-10600
▁Call	-10601
▁hydro	-10602
▁theater	-10603
▁Japanese	-10604
▁Gr	-10605
пени	-10606
▁bench	-10607
▁сила	-10608
▁умет	-10609
oids	-10610
▁коне	-10611
▁este	-10612
чително	-10613
▁реша	-10614
isions	-10615
idential	-10616
▁семејство	-10617
▁Ap	-10618
▁Blue	-10619
▁Сте	-10620
▁свој	-10621
▁manager	-10622
▁универзите	-10623
▁Preparation	-10624
жина	-10625
▁Schedule	-10626
▁Трамп	-10627
pections	-10628
▁mentors	-10629
гите	-10630
▁директ	-10631
губи	-10632
▁еми	-10633
▁Презе	-10634
▁војна	-10635
▁телото	-10636
iological	-10637
:*	-10638
▁James	-10639
▁sheds	-10640
▁diamonds	-10641
▁romantic	-10642
▁нека	-10643
itting	-10644
▁tracks	-10645
▁членови	-10646
ache	-10647
▁моќ	-10648
▁severity	-10649
▁bolstering	-10650
▁Show	-10651
▁Examine	-10652
gin	-10653
ygen	-10654
nam	-10655
▁Stream	-10656
▁цена	-10657
liness	-10658
▁Identi	-10659
▁addiction	-10660
ework	-10661
▁Union	-10662
нок	-10663
▁placing	-10664
ров	-10665
▁exh	-10666
▁Flor	-10667
▁tire	-10668
али	-10669
▁Smart	-10670
▁Слобод	-10671
▁минута	-10672
▁Aff	-10673
▁план	-10674
новите	-10675
▁процес	-10676
▁seasons	-10677
osh	-10678
жувањето	-10679
▁augment	-10680
▁Ann	-10681
atoes	-10682
▁Hello	-10683
▁taxes	-10684
▁приме	-10685
olution	-10686
▁guides	-10687
▁незави	-10688
▁Often	-10689
▁gifts	-10690
idating	-10691
▁стре	-10692
minded	-10693
▁Ow	-10694
▁trajectory	-10695
след	-10696
▁покажува	-10697
▁courage	-10698
▁constitu	-10699
▁обвините	-10700
▁RO	-10701
▁mortgages	-10702
rian	-10703
▁songs	-10704
▁stems	-10705
▁adopted	-10706
▁herself	-10707
▁rad	-10708
▁crystal	-10709
mates	-10710
▁sudden	-10711
▁прекра	-10712
ДИ	-10713
▁pave	-10714
▁раце	-10715
Ви	-10716
▁слуша	-10717
стен	-10718
▁els	-10719
▁index	-10720
▁Az	-10721
▁боја	-10722
▁голе	-10723
▁мани	-10724
▁Standard	-10725
▁elsewhere	-10726
▁креди	-10727
▁компанија	-10728
▁speeds	-10729
ференција	-10730
▁договорот	-10731
.“	-10732
ami	-10733
▁rural	-10734
▁наси	-10735
▁agility	-10736
▁здравстве	-10737
▁Women	-10738
▁principle	-10739
жје	-10740
пите	-10741
ander	-10742
▁нуди	-10743
▁студии	-10744
▁particles	-10745
Cs	-10746
itals	-10747
▁experim	-10748
▁deadlines	-10749
▁тешко	-10750
▁изло	-10751
лаго	-10752
▁ризи	-10753
▁solving	-10754
▁evaluations	-10755
sues	-10756
▁Guide	-10757
▁учество	-10758
▁Economic	-10759
▁медиумите	-10760
рале	-10761
SP	-10762
▁dreams	-10763
▁consol	-10764
▁изја	-10765
▁Турција	-10766
▁acquired	-10767
▁Innovation	-10768
▁Ques	-10769
▁Player	-10770
▁foundations	-10771
▁responsibly	-10772
▁storing	-10773
▁observing	-10774
▁cooling	-10775
la	-10776
▁ench	-10777
▁кампа	-10778
▁completed	-10779
▁investigations	-10780
▁crypto	-10781
▁hearts	-10782
▁curated	-10783
▁diligent	-10784
▁familiarize	-10785
▁Emer	-10786
▁сакам	-10787
▁воопшто	-10788
▁inflation	-10789
јо	-10790
olf	-10791
▁листа	-10792
▁minimum	-10793
▁дој	-10794
▁отка	-10795
▁Action	-10796
▁photographs	-10797
▁повре	-10798
▁opting	-10799
▁Administration	-10800
▁wondered	-10801
▁merch	-10802
▁напиша	-10803
▁Advoc	-10804
▁Therapy	-10805
▁reflective	-10806
▁API	-10807
▁сам	-10808
▁резултати	-10809
ano	-10810
▁Love	-10811
ostalg	-10812
▁impar	-10813
▁Having	-10814
▁градонача	-10815
▁Mach	-10816
▁compare	-10817
▁owner	-10818
▁партија	-10819
▁opposition	-10820
▁consume	-10821
▁foremost	-10822
▁tempor	-10823
RL	-10824
▁метри	-10825
▁shedding	-10826
▁Foundation	-10827
▁согласност	-10828
пушта	-10829
lick	-10830
aked	-10831
▁breaches	-10832
Sh	-10833
▁совр	-10834
away	-10835
▁изне	-10836
▁finish	-10837
▁полови	-10838
▁corruption	-10839
▁furn	-10840
intage	-10841
▁watching	-10842
▁јавноста	-10843
▁logistics	-10844
▁Seek	-10845
▁esteemed	-10846
▁chocolate	-10847
▁нејзината	-10848
▁mes	-10849
▁lingu	-10850
wik	-10851
▁шо	-10852
▁тур	-10853
▁coming	-10854
▁constitute	-10855
ja	-10856
overeign	-10857
▁Critical	-10858
RA	-10859
▁тен	-10860
▁jobs	-10861
▁exploit	-10862
thetical	-10863
▁Account	-10864
▁timelines	-10865
ВР	-10866
▁coin	-10867
▁mode	-10868
▁zone	-10869
▁eight	-10870
▁orient	-10871
▁бројот	-10872
▁илјади	-10873
▁basketball	-10874
▁Federal	-10875
▁visible	-10876
▁incredibly	-10877
торот	-10878
▁tele	-10879
▁инди	-10880
▁gives	-10881
▁банка	-10882
▁администра	-10883
▁средба	-10884
▁cameras	-10885
▁cohesion	-10886
where	-10887
▁buildings	-10888
лоба	-10889
▁admin	-10890
▁soccer	-10891
▁Equipment	-10892
▁mainstream	-10893
▁mentorship	-10894
За	-10895
вла	-10896
”,	-10897
▁Institute	-10898
▁Knowledge	-10899
▁нејзиниот	-10900
▁јули	-10901
▁карактеристи	-10902
лска	-10903
--------------	-10904
kens	-10905
rons	-10906
тните	-10907
▁damaged	-10908
WS	-10909
▁Issues	-10910
рви	-10911
▁Бог	-10912
▁intermedi	-10913
IA	-10914
▁никој	-10915
▁Ur	-10916
▁decl	-10917
▁освен	-10918
crafted	-10919
▁зборови	-10920
▁CD	-10921
зно	-10922
▁iron	-10923
▁зада	-10924
▁каме	-10925
▁ефика	-10926
▁improves	-10927
▁HTML	-10928
▁tranqu	-10929
▁officers	-10930
▁addressed	-10931
▁bias	-10932
▁assured	-10933
▁случа	-10934
▁работат	-10935
agen	-10936
▁сили	-10937
▁бидете	-10938
▁Советот	-10939
▁thrilling	-10940
change	-10941
▁burden	-10942
▁exped	-10943
▁нега	-10944
вју	-10945
▁chicken	-10946
▁personally	-10947
▁poverty	-10948
▁automatic	-10949
▁statistical	-10950
▁modify	-10951
▁dialogues	-10952
▁collections	-10953
▁Space	-10954
▁референ	-10955
▁eliminate	-10956
▁younger	-10957
▁Experiences	-10958
▁cozy	-10959
▁separation	-10960
▁summar	-10961
▁supporters	-10962
рхи	-10963
▁Pass	-10964
▁pace	-10965
▁ecological	-10966
▁компанијата	-10967
▁rising	-10968
▁vendors	-10969
▁nutritional	-10970
▁Gener	-10971
rustration	-10972
▁dates	-10973
▁Intell	-10974
▁acquire	-10975
▁approval	-10976
▁curriculum	-10977
LS	-10978
сре	-10979
▁employs	-10980
▁регионот	-10981
oma	-10982
TC	-10983
шина	-10984
▁проши	-10985
пати	-10986
▁Pos	-10987
ancer	-10988
▁владе	-10989
тска	-10990
ython	-10991
▁biology	-10992
▁protagon	-10993
▁Num	-10994
▁реши	-10995
▁facial	-10996
раа	-10997
▁Perspective	-10998
▁stre	-10999
▁победа	-11000
▁asser	-11001
▁radio	-11002
▁патот	-11003
▁чувствува	-11004
▁згра	-11005
ounted	-11006
HA	-11007
▁Estate	-11008
▁Drawing	-11009
onent	-11010
▁Audi	-11011
▁repeat	-11012
▁поголем	-11013
▁tendencies	-11014
inely	-11015
▁Beach	-11016
▁reper	-11017
▁ratings	-11018
▁След	-11019
▁armed	-11020
▁Adapting	-11021
▁flat	-11022
▁horm	-11023
▁Брита	-11024
▁adaptive	-11025
▁Cultivating	-11026
▁compassionate	-11027
▁termin	-11028
▁lean	-11029
▁pride	-11030
▁disposal	-11031
▁terror	-11032
▁iter	-11033
▁младите	-11034
expression	-11035
чкото	-11036
▁најдобри	-11037
▁phenomena	-11038
erv	-11039
lace	-11040
▁electricity	-11041
laim	-11042
▁Дел	-11043
▁шест	-11044
▁ranges	-11045
▁EU	-11046
urities	-11047
▁channel	-11048
▁институции	-11049
▁communal	-11050
acious	-11051
▁formed	-11052
tique	-11053
▁uniqu	-11054
▁opinion	-11055
▁директор	-11056
ship	-11057
▁Insights	-11058
Wh	-11059
▁victory	-11060
▁collaborating	-11061
▁square	-11062
▁Reflection	-11063
▁Path	-11064
▁library	-11065
▁зи	-11066
▁hybrid	-11067
▁fatigue	-11068
▁certifications	-11069
▁Holy	-11070
▁floor	-11071
▁highest	-11072
▁Government	-11073
▁UN	-11074
▁lists	-11075
▁adult	-11076
▁слобода	-11077
Ко	-11078
ензи	-11079
▁Кој	-11080
▁Cong	-11081
▁mother	-11082
ведување	-11083
")	-11084
▁Ukraine	-11085
рди	-11086
▁сопру	-11087
▁heights	-11088
кро	-11089
▁Strong	-11090
▁домаќи	-11091
▁најдобар	-11092
▁displayed	-11093
()	-11094
ota	-11095
▁мена	-11096
▁chemicals	-11097
▁plot	-11098
▁modeling	-11099
▁Maintenance	-11100
▁Aug	-11101
▁ric	-11102
osity	-11103
▁resolve	-11104
▁datasets	-11105
Ad	-11106
▁пло	-11107
▁hotels	-11108
▁февруари	-11109
▁интерес	-11110
▁Place	-11111
▁Центар	-11112
▁currency	-11113
metic	-11114
▁paving	-11115
▁целата	-11116
▁stig	-11117
▁losing	-11118
▁компле	-11119
▁Install	-11120
▁slic	-11121
illance	-11122
▁elevating	-11123
▁ТВ	-11124
▁Кума	-11125
▁фран	-11126
▁граде	-11127
работка	-11128
▁assembly	-11129
▁ноќ	-11130
▁Compliance	-11131
▁Lay	-11132
▁viable	-11133
▁clarify	-11134
etry	-11135
uild	-11136
arded	-11137
▁implies	-11138
▁Jan	-11139
▁dogs	-11140
uten	-11141
▁multim	-11142
Os	-11143
акси	-11144
▁Pan	-11145
▁Skin	-11146
ola	-11147
eseen	-11148
▁friend	-11149
▁Identity	-11150
▁контрола	-11151
`,	-11152
▁Er	-11153
oven	-11154
▁turb	-11155
▁прва	-11156
tivate	-11157
itz	-11158
dem	-11159
▁abroad	-11160
▁најави	-11161
conf	-11162
▁humor	-11163
▁helpful	-11164
▁frustration	-11165
▁negotiation	-11166
▁можеме	-11167
▁Wi	-11168
▁wish	-11169
▁mig	-11170
▁bustling	-11171
▁постојат	-11172
oper	-11173
▁instrumental	-11174
▁мерки	-11175
глас	-11176
▁fold	-11177
говорите	-11178
▁tactical	-11179
▁капа	-11180
▁scrutiny	-11181
ells	-11182
▁hob	-11183
▁испол	-11184
▁крити	-11185
conscious	-11186
▁Australia	-11187
%.	-11188
▁Cred	-11189
▁hypothetical	-11190
▁coc	-11191
жбата	-11192
▁triggers	-11193
▁Essentially	-11194
▁outstanding	-11195
▁Copy	-11196
▁Response	-11197
▁Tri	-11198
▁electronics	-11199
▁Finding	-11200
▁arguments	-11201
▁Lin	-11202
▁affairs	-11203
▁wildlife	-11204
uel	-11205
▁Jew	-11206
▁acids	-11207
▁explain	-11208
▁Even	-11209
▁attorneys	-11210
▁partnering	-11211
▁branding	-11212
▁студенти	-11213
▁footprint	-11214
▁мајка	-11215
▁Medicine	-11216
▁restaurants	-11217
▁proc	-11218
▁ори	-11219
▁universe	-11220
▁discoveries	-11221
▁LED	-11222
▁overlook	-11223
▁Ingredi	-11224
▁performed	-11225
сајт	-11226
▁cars	-11227
▁tackling	-11228
▁bes	-11229
▁тери	-11230
▁wellness	-11231
MA	-11232
ronom	-11233
▁норма	-11234
▁Cy	-11235
▁builds	-11236
▁minimizes	-11237
bed	-11238
▁inhib	-11239
▁настап	-11240
▁најмногу	-11241
▁bite	-11242
▁window	-11243
▁terrain	-11244
▁abstract	-11245
▁charging	-11246
▁communicating	-11247
▁richness	-11248
▁cardiovascular	-11249
▁повод	-11250
▁testimonials	-11251
шено	-11252
лација	-11253
▁expend	-11254
▁Интер	-11255
functional	-11256
▁Offer	-11257
▁истата	-11258
▁intertw	-11259
vals	-11260
idable	-11261
▁quantities	-11262
racking	-11263
ботени	-11264
▁expressed	-11265
▁Dan	-11266
вајте	-11267
▁Conc	-11268
▁cuts	-11269
▁honest	-11270
▁panels	-11271
▁powder	-11272
umen	-11273
▁Down	-11274
%,	-11275
▁Head	-11276
▁roster	-11277
▁Language	-11278
▁intentions	-11279
▁Пот	-11280
mouth	-11281
▁pear	-11282
▁frame	-11283
▁templates	-11284
▁Commission	-11285
▁Him	-11286
▁ech	-11287
▁Кар	-11288
▁Нова	-11289
ishment	-11290
▁еднаш	-11291
▁настани	-11292
▁Measuring	-11293
▁Organization	-11294
▁execute	-11295
▁Represent	-11296
aith	-11297
▁combine	-11298
▁Hear	-11299
▁photos	-11300
lor	-11301
▁gift	-11302
▁passed	-11303
▁consuming	-11304
▁phases	-11305
adow	-11306
▁perf	-11307
▁passions	-11308
▁вредност	-11309
▁baseball	-11310
▁JavaScript	-11311
▁Sar	-11312
▁rush	-11313
ториот	-11314
amps	-11315
ael	-11316
јани	-11317
▁поголема	-11318
App	-11319
impse	-11320
▁drop	-11321
▁instant	-11322
▁запозна	-11323
▁inspections	-11324
▁suggestions	-11325
▁ДА	-11326
▁retaining	-11327
▁formidable	-11328
offs	-11329
▁новите	-11330
▁passeng	-11331
▁hone	-11332
▁delay	-11333
▁capturing	-11334
▁corporations	-11335
▁revel	-11336
▁marriage	-11337
▁university	-11338
▁smartphones	-11339
▁коли	-11340
ecycle	-11341
▁facts	-11342
▁Specific	-11343
▁attorney	-11344
▁sale	-11345
keeping	-11346
▁fle	-11347
Ts	-11348
▁gran	-11349
profile	-11350
▁Living	-11351
▁истиот	-11352
▁categor	-11353
▁sensors	-11354
▁plate	-11355
itional	-11356
▁Israel	-11357
II	-11358
zation	-11359
▁hinges	-11360
▁expansive	-11361
▁distinguish	-11362
mail	-11363
▁hip	-11364
anged	-11365
▁lenders	-11366
▁certification	-11367
▁portray	-11368
▁Аген	-11369
▁spend	-11370
▁puzz	-11371
▁влада	-11372
▁друго	-11373
мне	-11374
▁wheel	-11375
▁прате	-11376
▁mentions	-11377
▁transmit	-11378
реса	-11379
▁одлука	-11380
▁dys	-11381
гнат	-11382
source	-11383
▁Master	-11384
▁elegant	-11385
▁tolerance	-11386
▁speaks	-11387
▁Transpar	-11388
ago	-11389
▁throw	-11390
▁стане	-11391
▁references	-11392
▁legisl	-11393
dim	-11394
▁Feed	-11395
▁Enhancing	-11396
▁bit	-11397
стички	-11398
▁irrit	-11399
▁враќа	-11400
▁unforeseen	-11401
▁Implementation	-11402
php	-11403
▁Mess	-11404
▁larg	-11405
▁penet	-11406
▁страни	-11407
▁годинава	-11408
cop	-11409
▁трае	-11410
▁власт	-11411
▁Location	-11412
▁Popular	-11413
ometric	-11414
▁duties	-11415
▁windows	-11416
▁mounting	-11417
rium	-11418
▁conve	-11419
▁adaptable	-11420
▁надо	-11421
▁Relev	-11422
▁Adher	-11423
несуваат	-11424
▁precisely	-11425
▁Conflic	-11426
▁follows	-11427
▁equality	-11428
▁сни	-11429
▁одбрана	-11430
▁unus	-11431
▁герма	-11432
▁bottom	-11433
ПА	-11434
▁solidarity	-11435
дов	-11436
▁lap	-11437
▁фон	-11438
uminum	-11439
▁proves	-11440
▁Пар	-11441
▁вре	-11442
▁професо	-11443
▁litigation	-11444
▁fears	-11445
▁Android	-11446
▁Writing	-11447
▁Sports	-11448
▁literary	-11449
▁hes	-11450
▁proceedings	-11451
▁observations	-11452
▁крат	-11453
▁conting	-11454
▁heating	-11455
▁newfound	-11456
▁Sn	-11457
ried	-11458
urrently	-11459
▁greatly	-11460
▁претходно	-11461
кру	-11462
▁tourn	-11463
▁држави	-11464
▁Combining	-11465
▁refreshing	-11466
ardi	-11467
▁diges	-11468
effective	-11469
▁religion	-11470
▁tends	-11471
▁escape	-11472
▁signaling	-11473
▁hosts	-11474
▁trips	-11475
▁oversight	-11476
▁sentiment	-11477
вид	-11478
▁жите	-11479
▁appli	-11480
jud	-11481
сон	-11482
▁alm	-11483
▁elevated	-11484
▁surprise	-11485
aper	-11486
▁Big	-11487
▁мла	-11488
▁ско	-11489
▁усло	-11490
▁Франција	-11491
ет	-11492
▁играат	-11493
▁consciousness	-11494
users	-11495
гација	-11496
▁иниција	-11497
class	-11498
пушти	-11499
▁производство	-11500
itual	-11501
▁мом	-11502
ients	-11503
▁Model	-11504
▁alle	-11505
▁manually	-11506
▁discrepancies	-11507
▁Mobile	-11508
aluable	-11509
▁customizable	-11510
▁Dental	-11511
▁largely	-11512
▁здра	-11513
рои	-11514
▁Mary	-11515
ye	-11516
гар	-11517
▁Bank	-11518
▁Limited	-11519
▁подоцна	-11520
▁executive	-11521
ereum	-11522
▁promotions	-11523
▁Tom	-11524
▁поде	-11525
tifying	-11526
големиот	-11527
▁transfers	-11528
▁sleek	-11529
forming	-11530
▁Office	-11531
▁understands	-11532
▁потти	-11533
▁mediums	-11534
▁surveys	-11535
▁installations	-11536
▁жрт	-11537
▁нео	-11538
▁трка	-11539
▁Commit	-11540
▁venues	-11541
▁repairs	-11542
▁tapping	-11543
▁зами	-11544
▁presentations	-11545
чани	-11546
▁глу	-11547
lands	-11548
▁теро	-11549
urement	-11550
кцијата	-11551
▁progressive	-11552
▁VIII	-11553
▁виде	-11554
▁booking	-11555
▁reinforce	-11556
▁Prevention	-11557
▁politicians	-11558
▁високо	-11559
▁rival	-11560
▁APIs	-11561
ено	-11562
▁River	-11563
миња	-11564
isons	-11565
▁Mark	-11566
▁batt	-11567
▁richer	-11568
▁Jud	-11569
▁Teams	-11570
▁paint	-11571
▁diamond	-11572
▁WordPress	-11573
▁geopolitical	-11574
есет	-11575
▁Овие	-11576
▁thermal	-11577
▁streamlined	-11578
▁англи	-11579
▁enhancement	-11580
▁flaw	-11581
itative	-11582
▁Elements	-11583
▁историја	-11584
▁гости	-11585
▁порта	-11586
▁август	-11587
▁arm	-11588
▁sold	-11589
▁Игра	-11590
▁греш	-11591
▁Document	-11592
гии	-11593
▁enriches	-11594
auses	-11595
▁Госп	-11596
▁imposed	-11597
тури	-11598
▁Lake	-11599
▁transitioning	-11600
ата	-11601
▁lock	-11602
▁Хрват	-11603
▁destruc	-11604
▁concentration	-11605
atal	-11606
▁Club	-11607
▁shooting	-11608
▁impressions	-11609
LC	-11610
▁Crim	-11611
uit	-11612
▁одговори	-11613
▁happens	-11614
▁minerals	-11615
▁празни	-11616
▁instability	-11617
▁Rock	-11618
▁annually	-11619
▁Македонската	-11620
▁Script	-11621
▁finished	-11622
▁seeds	-11623
▁Cath	-11624
▁Tax	-11625
▁ranks	-11626
▁centralized	-11627
спа	-11628
▁мал	-11629
▁embody	-11630
▁transcend	-11631
еме	-11632
▁Mil	-11633
ashes	-11634
▁светски	-11635
▁executed	-11636
нувањето	-11637
▁alleg	-11638
▁Select	-11639
▁earned	-11640
▁trails	-11641
boards	-11642
▁Right	-11643
index	-11644
▁sides	-11645
▁boards	-11646
▁Principles	-11647
▁утре	-11648
oys	-11649
▁сцена	-11650
▁electro	-11651
тив	-11652
▁периодот	-11653
▁welcoming	-11654
ST	-11655
ерод	-11656
▁breaks	-11657
▁вработ	-11658
akistan	-11659
▁Great	-11660
▁човекот	-11661
standings	-11662
ЕС	-11663
доа	-11664
ментот	-11665
▁labels	-11666
▁modules	-11667
ford	-11668
прод	-11669
▁врски	-11670
▁trained	-11671
▁athletic	-11672
▁Journey	-11673
▁apparent	-11674
▁компании	-11675
▁мет	-11676
▁suited	-11677
▁rice	-11678
▁поди	-11679
▁музика	-11680
ensively	-11681
▁hun	-11682
▁calm	-11683
eterm	-11684
▁park	-11685
mas	-11686
Con	-11687
▁сми	-11688
▁trustworth	-11689
▁grapple	-11690
▁swiftly	-11691
▁finishes	-11692
tun	-11693
▁outline	-11694
▁glimpse	-11695
▁behavioral	-11696
▁процесот	-11697
RT	-11698
▁дознаете	-11699
▁protected	-11700
EL	-11701
▁Дру	-11702
▁inev	-11703
▁teamwork	-11704
▁отвори	-11705
зор	-11706
▁Ethereum	-11707
▁Прилеп	-11708
▁дро	-11709
▁tags	-11710
ressed	-11711
▁економ	-11712
▁програми	-11713
▁importantly	-11714
base	-11715
▁vine	-11716
▁Should	-11717
▁golden	-11718
▁illust	-11719
▁Зем	-11720
▁tough	-11721
▁Foster	-11722
▁Men	-11723
▁зема	-11724
▁diagn	-11725
▁edges	-11726
▁Сан	-11727
▁воза	-11728
▁надворешни	-11729
▁проду	-11730
чено	-11731
чник	-11732
▁($	-11733
▁Career	-11734
▁intellig	-11735
▁linguistic	-11736
тал	-11737
▁Cli	-11738
▁tree	-11739
▁entail	-11740
▁предло	-11741
▁dismiss	-11742
▁impactful	-11743
▁духо	-11744
aro	-11745
▁страната	-11746
bleshooting	-11747
▁Exerc	-11748
▁seven	-11749
▁restore	-11750
▁ца	-11751
▁gets	-11752
writing	-11753
▁причина	-11754
▁confidentiality	-11755
▁DNA	-11756
▁Еден	-11757
▁Emerging	-11758
▁Property	-11759
▁Strategic	-11760
▁премиер	-11761
▁tours	-11762
▁finger	-11763
▁амбаса	-11764
▁колачиња	-11765
▁Age	-11766
▁Society	-11767
▁hues	-11768
▁мојот	-11769
▁reinforces	-11770
▁Games	-11771
▁bolsters	-11772
▁управување	-11773
▁nursing	-11774
▁respecting	-11775
▁oxygen	-11776
▁theft	-11777
pes	-11778
▁Lu	-11779
▁Watch	-11780
uration	-11781
▁сигурно	-11782
ilib	-11783
▁Информа	-11784
▁корисни	-11785
едно	-11786
▁Artist	-11787
▁mixing	-11788
▁privile	-11789
▁gall	-11790
▁verification	-11791
▁Whats	-11792
▁proof	-11793
inflamm	-11794
iking	-11795
ounce	-11796
lasting	-11797
▁забра	-11798
▁signature	-11799
rating	-11800
thew	-11801
annel	-11802
▁оцен	-11803
▁chaos	-11804
▁Nature	-11805
▁spices	-11806
▁nuclear	-11807
ртот	-11808
▁empir	-11809
▁економски	-11810
нос	-11811
фт	-11812
bur	-11813
▁vill	-11814
emption	-11815
▁Prepare	-11816
▁breathing	-11817
▁radiation	-11818
чари	-11819
▁победи	-11820
▁Ju	-11821
▁burdens	-11822
,”	-11823
▁групи	-11824
tee	-11825
▁Transport	-11826
чев	-11827
asted	-11828
anding	-11829
▁потпи	-11830
▁види	-11831
ayment	-11832
▁felt	-11833
▁гол	-11834
ector	-11835
▁soul	-11836
дри	-11837
ној	-11838
▁Products	-11839
▁computers	-11840
▁measurements	-11841
лам	-11842
omas	-11843
▁Сло	-11844
▁Exec	-11845
▁quiet	-11846
▁anything	-11847
▁restoration	-11848
▁Kore	-11849
▁центарот	-11850
amel	-11851
rew	-11852
osure	-11853
▁Cover	-11854
▁Council	-11855
▁fantasy	-11856
▁Ке	-11857
▁Bec	-11858
▁дво	-11859
▁kindness	-11860
▁varieties	-11861
▁Position	-11862
gent	-11863
лето	-11864
ville	-11865
ЛО	-11866
▁Anti	-11867
▁оглед	-11868
information	-11869
▁едноставно	-11870
bi	-11871
▁succ	-11872
voking	-11873
▁криви	-11874
▁Христо	-11875
▁Complex	-11876
▁Different	-11877
▁creatures	-11878
▁predefined	-11879
range	-11880
▁ratios	-11881
▁заштите	-11882
▁Concepts	-11883
▁Technical	-11884
oted	-11885
▁Mix	-11886
▁installed	-11887
▁Александар	-11888
habilitation	-11889
▁lifecycle	-11890
▁Ана	-11891
▁Apply	-11892
вувањето	-11893
▁indirect	-11894
▁resolving	-11895
▁Address	-11896
▁currencies	-11897
▁LG	-11898
▁парла	-11899
pret	-11900
▁pert	-11901
▁false	-11902
▁shots	-11903
▁appearances	-11904
▁Dev	-11905
▁фоку	-11906
usively	-11907
▁син	-11908
▁dele	-11909
acle	-11910
жност	-11911
▁starters	-11912
▁Secure	-11913
OA	-11914
dy	-11915
tains	-11916
▁тимот	-11917
▁посета	-11918
formed	-11919
логија	-11920
MC	-11921
▁tale	-11922
roducing	-11923
▁faculty	-11924
▁nostalg	-11925
▁Processes	-11926
▁Претседателот	-11927
▁Бел	-11928
▁earn	-11929
▁подобри	-11930
▁parallels	-11931
▁introduces	-11932
▁varied	-11933
▁Harness	-11934
▁confident	-11935
▁Technologies	-11936
▁исх	-11937
▁tied	-11938
▁туристи	-11939
▁теа	-11940
ењето	-11941
▁Require	-11942
▁retreat	-11943
▁Americans	-11944
▁Ent	-11945
▁Resili	-11946
▁houses	-11947
▁Court	-11948
▁dict	-11949
▁passive	-11950
▁pollution	-11951
▁sovereign	-11952
title	-11953
▁tear	-11954
▁Basic	-11955
▁посебно	-11956
▁Republic	-11957
draw	-11958
asters	-11959
▁јасно	-11960
▁францу	-11961
▁England	-11962
пто	-11963
▁eluc	-11964
▁Roman	-11965
ilibrium	-11966
▁helped	-11967
▁милија	-11968
▁Description	-11969
SC	-11970
▁reconc	-11971
rological	-11972
▁ху	-11973
▁gro	-11974
ouses	-11975
▁yellow	-11976
▁tissues	-11977
▁Pakistan	-11978
▁lifetime	-11979
чево	-11980
права	-11981
emble	-11982
verages	-11983
meg	-11984
▁CRM	-11985
▁стати	-11986
▁техни	-11987
▁diligently	-11988
▁jurisdictions	-11989
jection	-11990
▁copper	-11991
▁Clearly	-11992
vas	-11993
▁quart	-11994
▁assume	-11995
▁Characteristics	-11996
irop	-11997
▁Begin	-11998
▁planet	-11999
▁mindful	-12000
▁reap	-12001
▁неве	-12002
▁ethics	-12003
▁repeated	-12004
мар	-12005
▁ору	-12006
dation	-12007
▁settle	-12008
iner	-12009
▁Косо	-12010
▁покри	-12011
▁traders	-12012
▁половина	-12013
▁најдобрите	-12014
oters	-12015
насти	-12016
Се	-12017
стува	-12018
▁трошо	-12019
▁Дими	-12020
▁grants	-12021
▁density	-12022
▁хар	-12023
▁keys	-12024
▁mold	-12025
▁одлучи	-12026
tibility	-12027
▁nutrients	-12028
eph	-12029
▁desk	-12030
ointed	-12031
▁plain	-12032
ксуа	-12033
▁producers	-12034
▁Job	-12035
edy	-12036
▁опози	-12037
▁carrying	-12038
▁Overcoming	-12039
▁disabilities	-12040
▁defenses	-12041
▁realizing	-12042
▁recycling	-12043
▁функциони	-12044
▁Еве	-12045
▁translates	-12046
▁antib	-12047
▁falling	-12048
▁Efficiency	-12049
▁gamers	-12050
▁overhead	-12051
▁лиде	-12052
cepting	-12053
▁Prem	-12054
▁inconsist	-12055
▁observation	-12056
ivic	-12057
matic	-12058
▁permit	-12059
▁arrival	-12060
▁Prioritize	-12061
▁competitiveness	-12062
RC	-12063
▁chefs	-12064
▁осигу	-12065
▁телефон	-12066
ourcing	-12067
фу	-12068
мица	-12069
▁Higher	-12070
▁преста	-12071
▁факултет	-12072
Во	-12073
ЕДО	-12074
▁Секој	-12075
▁brill	-12076
▁panel	-12077
▁мојата	-12078
▁нашето	-12079
дине	-12080
▁crimes	-12081
▁debris	-12082
PT	-12083
ime	-12084
▁lending	-12085
▁ventures	-12086
▁releasing	-12087
▁Lab	-12088
▁гре	-12089
▁Asia	-12090
arks	-12091
books	-12092
стрија	-12093
▁добар	-12094
▁контакти	-12095
▁grass	-12096
▁мрежа	-12097
▁Low	-12098
▁ride	-12099
▁Leverage	-12100
▁преки	-12101
locking	-12102
▁outlining	-12103
▁reviewing	-12104
▁наба	-12105
▁рецеп	-12106
▁Florida	-12107
▁responsiveness	-12108
▁wall	-12109
▁видови	-12110
zym	-12111
▁Flex	-12112
▁continuing	-12113
▁enchanting	-12114
▁spatial	-12115
▁отколку	-12116
▁finances	-12117
alley	-12118
scrib	-12119
▁consensus	-12120
▁franchise	-12121
Македо	-12122
▁Asian	-12123
граф	-12124
тник	-12125
▁rand	-12126
▁said	-12127
▁буџе	-12128
▁транспо	-12129
▁вистински	-12130
▁знам	-12131
▁Италија	-12132
▁социјалните	-12133
мон	-12134
▁pione	-12135
▁convic	-12136
▁електри	-12137
пка	-12138
▁одо	-12139
рност	-12140
▁диску	-12141
▁потребни	-12142
▁Sit	-12143
▁rol	-12144
itate	-12145
▁morale	-12146
▁unlike	-12147
▁backup	-12148
▁equilibrium	-12149
▁pays	-12150
▁underst	-12151
▁конкурен	-12152
▁usability	-12153
▁Chat	-12154
aughter	-12155
▁Investment	-12156
зии	-12157
лон	-12158
зува	-12159
▁tox	-12160
▁помина	-12161
▁multimedia	-12162
asis	-12163
emical	-12164
рон	-12165
▁МАК	-12166
▁Bow	-12167
▁measurement	-12168
▁освои	-12169
▁Покрај	-12170
▁announcement	-12171
менува	-12172
▁unusual	-12173
ointing	-12174
omal	-12175
▁woman	-12176
▁announced	-12177
▁manipulate	-12178
▁—	-12179
▁News	-12180
▁пазар	-12181
▁random	-12182
▁Washing	-12183
▁synchron	-12184
рба	-12185
list	-12186
oves	-12187
ondon	-12188
itis	-12189
▁photo	-12190
▁accessing	-12191
SL	-12192
убовта	-12193
▁bands	-12194
▁contrasting	-12195
".	-12196
▁Party	-12197
▁specialists	-12198
ospel	-12199
▁раст	-12200
▁Concept	-12201
ipedia	-12202
▁parks	-12203
МИ	-12204
▁Пла	-12205
▁entity	-12206
▁curricula	-12207
era	-12208
▁Third	-12209
▁backl	-12210
▁капаците	-12211
▁Ше	-12212
▁famous	-12213
▁provisions	-12214
▁SM	-12215
▁ambig	-12216
▁заклу	-12217
▁outreach	-12218
▁референдум	-12219
▁qualifications	-12220
раните	-12221
▁Зоран	-12222
▁одбеле	-12223
▁всушност	-12224
▁jump	-12225
▁секако	-12226
▁пси	-12227
▁Eastern	-12228
ria	-12229
▁installing	-12230
▁orth	-12231
▁борба	-12232
▁endeavor	-12233
▁standardized	-12234
▁unconventional	-12235
▁квалитет	-12236
ковите	-12237
▁Hotel	-12238
▁жен	-12239
▁рака	-12240
▁tourist	-12241
▁overwhelmed	-12242
anal	-12243
кетинг	-12244
▁analysts	-12245
▁backdrop	-12246
oom	-12247
▁ЈА	-12248
зема	-12249
ockey	-12250
▁Webs	-12251
▁openly	-12252
▁refinement	-12253
uled	-12254
▁skep	-12255
▁населе	-12256
▁benefiting	-12257
live	-12258
▁Core	-12259
▁grid	-12260
▁vintage	-12261
▁exterior	-12262
▁gameplay	-12263
▁sequences	-12264
▁simplifies	-12265
▁door	-12266
▁прочита	-12267
Un	-12268
car	-12269
▁Demonstr	-12270
▁Additional	-12271
▁МО	-12272
▁attachment	-12273
▁Intelligence	-12274
▁interpreting	-12275
ien	-12276
▁ble	-12277
▁Бар	-12278
▁relate	-12279
▁Decision	-12280
▁зголемување	-12281
▁Број	-12282
▁aband	-12283
▁trees	-12284
▁Национа	-12285
▁simplify	-12286
▁Educational	-12287
ttp	-12288
▁брзи	-12289
▁фаза	-12290
▁останатите	-12291
▁surveillance	-12292
▁calend	-12293
▁возила	-12294
▁paradig	-12295
▁способ	-12296
▁vocal	-12297
▁Metrics	-12298
▁Lar	-12299
▁Pros	-12300
▁parking	-12301
▁screens	-12302
imal	-12303
▁pump	-12304
▁rhythm	-12305
▁extrem	-12306
▁комисија	-12307
▁Anticip	-12308
▁couples	-12309
rum	-12310
▁tab	-12311
▁interacting	-12312
▁Iran	-12313
▁garlic	-12314
нето	-12315
▁PC	-12316
▁cup	-12317
▁личност	-12318
▁местото	-12319
▁empirical	-12320
▁marine	-12321
▁ritual	-12322
▁tokens	-12323
▁relatable	-12324
SM	-12325
▁Creative	-12326
▁fuels	-12327
▁отсто	-12328
▁промови	-12329
▁изво	-12330
▁пост	-12331
▁cricket	-12332
▁акаде	-12333
▁imagination	-12334
urric	-12335
urable	-12336
▁diplomacy	-12337
▁Прое	-12338
inflammatory	-12339
бук	-12340
▁Reading	-12341
▁anticipation	-12342
▁controversial	-12343
волу	-12344
▁empath	-12345
▁captured	-12346
▁smoothly	-12347
▁anticipated	-12348
▁assignments	-12349
▁Hosp	-12350
▁jazz	-12351
▁draft	-12352
▁tables	-12353
▁дефини	-12354
▁People	-12355
▁refined	-12356
▁difficulty	-12357
vable	-12358
▁YouT	-12359
▁Style	-12360
orge	-12361
▁брен	-12362
ndrome	-12363
▁Texas	-12364
▁Fast	-12365
▁Mass	-12366
▁Type	-12367
▁depic	-12368
▁courts	-12369
ictional	-12370
▁manageable	-12371
▁бараат	-12372
▁министерот	-12373
enal	-12374
рните	-12375
▁чини	-12376
▁lightweight	-12377
EN	-12378
▁DI	-12379
etting	-12380
▁mining	-12381
▁lifespan	-12382
кои	-12383
▁Recap	-12384
ulpt	-12385
▁напред	-12386
▁saw	-12387
obe	-12388
руп	-12389
▁mund	-12390
uation	-12391
▁legitimate	-12392
▁contribution	-12393
▁Sound	-12394
▁проме	-12395
▁degradation	-12396
▁forgiveness	-12397
Th	-12398
▁Претход	-12399
▁arrangement	-12400
irl	-12401
▁mail	-12402
asions	-12403
матски	-12404
▁Кликнете	-12405
PP	-12406
▁ingen	-12407
ropriate	-12408
▁profits	-12409
▁exacerbate	-12410
▁feasible	-12411
▁Pic	-12412
▁Base	-12413
▁venue	-12414
▁задржува	-12415
▁unrelated	-12416
▁Directions	-12417
▁Harnessing	-12418
ospher	-12419
▁adhes	-12420
▁Region	-12421
▁Cooking	-12422
бени	-12423
▁illustrates	-12424
▁Code	-12425
▁conference	-12426
▁знаат	-12427
▁vitamin	-12428
▁enhancements	-12429
▁Again	-12430
▁Nutri	-12431
▁London	-12432
▁indulge	-12433
cal	-12434
▁hospitals	-12435
▁absorption	-12436
▁utilizes	-12437
▁male	-12438
▁зву	-12439
Based	-12440
grade	-12441
▁канце	-12442
iled	-12443
несете	-12444
▁Emergency	-12445
▁recurring	-12446
год	-12447
anda	-12448
▁awards	-12449
▁дра	-12450
▁регион	-12451
▁mundane	-12452
inder	-12453
▁поче	-12454
▁Level	-12455
▁јазици	-12456
▁extraction	-12457
▁Така	-12458
gy	-12459
реа	-12460
▁осу	-12461
▁lesser	-12462
▁necessity	-12463
iances	-12464
▁specifications	-12465
ДА	-12466
▁stro	-12467
▁wherein	-12468
▁stays	-12469
▁fueling	-12470
eld	-12471
▁Island	-12472
▁retrie	-12473
▁затвор	-12474
▁Optimization	-12475
▁tone	-12476
тоците	-12477
▁senior	-12478
▁electoral	-12479
▁претставници	-12480
тип	-12481
▁Mad	-12482
▁иницијати	-12483
▁традициона	-12484
gering	-12485
▁Known	-12486
▁myster	-12487
▁periodic	-12488
▁accountable	-12489
▁AD	-12490
шена	-12491
▁division	-12492
▁преду	-12493
▁сосема	-12494
▁persu	-12495
▁allure	-12496
HP	-12497
▁wra	-12498
▁permanent	-12499
▁References	-12500
ht	-12501
▁GD	-12502
▁Денес	-12503
▁namely	-12504
▁улога	-12505
▁vessels	-12506
▁презема	-12507
▁Колку	-12508
▁impair	-12509
OT	-12510
▁gest	-12511
border	-12512
▁crowd	-12513
▁карактер	-12514
▁satisfied	-12515
▁комбина	-12516
▁Ар	-12517
ouch	-12518
▁backed	-12519
▁touches	-12520
▁incoming	-12521
idate	-12522
▁Copyright	-12523
▁Tre	-12524
▁одби	-12525
▁поло	-12526
tely	-12527
▁опрема	-12528
▁Theology	-12529
▁Blu	-12530
▁Manager	-12531
▁curve	-12532
▁doctr	-12533
▁exclusively	-12534
▁реак	-12535
▁Свети	-12536
▁magical	-12537
▁причини	-12538
▁сне	-12539
▁некогаш	-12540
▁регу	-12541
чината	-12542
▁coastal	-12543
▁deliber	-12544
▁influencers	-12545
▁знак	-12546
▁unless	-12547
▁suspicious	-12548
▁студентите	-12549
▁EV	-12550
▁минатата	-12551
▁длабо	-12552
кнување	-12553
▁sacred	-12554
▁Materials	-12555
▁Cryptocurr	-12556
▁возраст	-12557
▁новинар	-12558
▁revolutionized	-12559
mits	-12560
▁shine	-12561
▁voters	-12562
uded	-12563
▁Policies	-12564
onies	-12565
▁терито	-12566
▁потенција	-12567
▁await	-12568
▁motif	-12569
зијата	-12570
▁подобрување	-12571
▁licensing	-12572
падна	-12573
anthrop	-12574
▁дизајн	-12575
▁Designing	-12576
▁knowledgeable	-12577
▁Вие	-12578
▁првенство	-12579
гласи	-12580
▁Arab	-12581
▁myth	-12582
▁footage	-12583
▁неприја	-12584
▁Washington	-12585
zes	-12586
там	-12587
▁печа	-12588
▁Middle	-12589
▁ограни	-12590
јсбук	-12591
▁anch	-12592
▁neutral	-12593
▁URL	-12594
напред	-12595
▁добри	-12596
▁reasonable	-12597
▁hub	-12598
▁ratio	-12599
▁battle	-12600
▁изглед	-12601
▁Куманово	-12602
▁equipping	-12603
▁gut	-12604
▁pertinent	-12605
itors	-12606
мијата	-12607
▁vitamins	-12608
▁largest	-12609
▁ар	-12610
▁uncom	-12611
▁conserv	-12612
▁Pet	-12613
▁bugs	-12614
tified	-12615
▁Purpose	-12616
real	-12617
▁акту	-12618
▁investor	-12619
▁Cris	-12620
спекти	-12621
▁Opt	-12622
▁Alex	-12623
▁Valley	-12624
▁starts	-12625
▁costly	-12626
▁explor	-12627
▁одредени	-12628
▁продолжува	-12629
▁РЕ	-12630
▁Cele	-12631
▁Уста	-12632
▁propri	-12633
ќен	-12634
▁Иванов	-12635
▁container	-12636
плата	-12637
▁Реги	-12638
▁gemstones	-12639
iration	-12640
provoking	-12641
BM	-12642
▁nour	-12643
▁објас	-12644
▁visuals	-12645
▁изградба	-12646
Ac	-12647
▁Вер	-12648
ipped	-12649
лноста	-12650
▁МАКЕДО	-12651
▁eligible	-12652
osting	-12653
▁Хрватска	-12654
▁Emp	-12655
▁ово	-12656
▁еди	-12657
▁https	-12658
▁секое	-12659
▁happen	-12660
▁внимание	-12661
▁Преземено	-12662
na	-12663
▁adj	-12664
▁сфа	-12665
▁wrest	-12666
▁стаби	-12667
▁зголеми	-12668
▁tales	-12669
▁publicly	-12670
кле	-12671
▁upfront	-12672
▁wireless	-12673
▁важно	-12674
▁default	-12675
▁maintained	-12676
роди	-12677
ocket	-12678
▁Оста	-12679
▁маса	-12680
▁паци	-12681
▁printing	-12682
▁carb	-12683
▁креи	-12684
▁чекор	-12685
rals	-12686
▁careg	-12687
▁really	-12688
▁absence	-12689
▁samples	-12690
▁контакт	-12691
лството	-12692
▁secret	-12693
lectable	-12694
▁кримина	-12695
▁Начин	-12696
▁Linked	-12697
▁Retrie	-12698
▁ослобод	-12699
▁премногу	-12700
▁rh	-12701
▁КА	-12702
▁Ve	-12703
▁coher	-12704
▁flows	-12705
▁напад	-12706
▁почнува	-12707
▁Determine	-12708
stery	-12709
▁укра	-12710
▁owing	-12711
▁counts	-12712
▁останува	-12713
▁Credit	-12714
▁converting	-12715
шкиот	-12716
▁disturb	-12717
gar	-12718
▁fee	-12719
▁soil	-12720
▁tiny	-12721
ените	-12722
▁mixture	-12723
▁batteries	-12724
▁inspection	-12725
▁неу	-12726
▁buck	-12727
▁вешти	-12728
▁Methods	-12729
▁YouTube	-12730
▁invaluable	-12731
uli	-12732
hear	-12733
▁lush	-12734
▁distribute	-12735
▁Relationship	-12736
бно	-12737
▁ПРО	-12738
▁Dise	-12739
▁none	-12740
▁Align	-12741
▁интервју	-12742
▁препозна	-12743
▁administer	-12744
▁containers	-12745
Ро	-12746
ји	-12747
van	-12748
tune	-12749
▁Све	-12750
▁brace	-12751
▁прашањето	-12752
vious	-12753
▁вика	-12754
▁добива	-12755
▁revealed	-12756
▁definition	-12757
RE	-12758
стран	-12759
▁successes	-12760
▁secre	-12761
▁trace	-12762
▁Regulatory	-12763
▁cornerstone	-12764
▁гро	-12765
▁ката	-12766
▁appliances	-12767
▁Requirements	-12768
casts	-12769
▁Сега	-12770
▁tenure	-12771
▁издание	-12772
▁reproduc	-12773
▁Fail	-12774
▁глоба	-12775
▁wisely	-12776
▁региона	-12777
▁вториот	-12778
▁подгото	-12779
▁productions	-12780
itious	-12781
▁honey	-12782
reshold	-12783
▁Recomm	-12784
▁Stri	-12785
ulin	-12786
гуваат	-12787
▁Working	-12788
▁decided	-12789
▁membership	-12790
anger	-12791
autions	-12792
▁synthetic	-12793
rise	-12794
iscal	-12795
▁Dynamics	-12796
▁champion	-12797
▁обезбеди	-12798
нки	-12799
aple	-12800
▁brighter	-12801
▁complicated	-12802
▁џ	-12803
ulf	-12804
▁Fresh	-12805
▁movie	-12806
▁upper	-12807
▁van	-12808
шуваат	-12809
▁rings	-12810
▁Russian	-12811
inars	-12812
▁детето	-12813
▁сви	-12814
▁stor	-12815
▁Recent	-12816
▁влијание	-12817
▁illustrated	-12818
kin	-12819
eels	-12820
▁morning	-12821
▁wonders	-12822
ario	-12823
▁extrac	-12824
▁посвете	-12825
ella	-12826
неме	-12827
роско	-12828
▁ends	-12829
▁намалување	-12830
▁differently	-12831
▁agricultural	-12832
▁incorporates	-12833
RS	-12834
▁Inv	-12835
▁настан	-12836
▁recipients	-12837
IC	-12838
IM	-12839
▁homeowners	-12840
▁огром	-12841
▁investigate	-12842
сква	-12843
▁noted	-12844
▁одигра	-12845
▁radical	-12846
▁Collection	-12847
▁street	-12848
▁Behavior	-12849
▁stigma	-12850
▁matching	-12851
▁Mi	-12852
▁болести	-12853
▁ум	-12854
▁повика	-12855
▁commands	-12856
▁exhibits	-12857
bone	-12858
ediat	-12859
▁Franc	-12860
▁promin	-12861
▁voting	-12862
▁оружје	-12863
▁општество	-12864
▁department	-12865
NS	-12866
ester	-12867
▁Define	-12868
▁calling	-12869
▁наместо	-12870
▁respectful	-12871
▁Capital	-12872
▁начи	-12873
▁Engagement	-12874
ЗИ	-12875
▁живеат	-12876
▁tor	-12877
▁deciding	-12878
agog	-12879
acent	-12880
▁Author	-12881
▁приказна	-12882
▁predictive	-12883
опход	-12884
▁sheer	-12885
▁entries	-12886
▁ситуација	-12887
▁Работ	-12888
▁Consist	-12889
▁Michael	-12890
▁мислење	-12891
▁unpredict	-12892
▁испо	-12893
▁барем	-12894
▁formula	-12895
▁newslet	-12896
▁производите	-12897
телите	-12898
▁woven	-12899
▁recept	-12900
▁premature	-12901
▁teammates	-12902
▁ГО	-12903
▁Who	-12904
▁tub	-12905
Pl	-12906
▁Кра	-12907
▁racial	-12908
▁massive	-12909
▁completely	-12910
net	-12911
▁Пор	-12912
rounded	-12913
▁немаат	-12914
▁центра	-12915
▁Campaign	-12916
▁peaceful	-12917
▁потрошува	-12918
”.	-12919
ught	-12920
▁консу	-12921
▁offense	-12922
▁steadfast	-12923
▁Ту	-12924
▁permission	-12925
rank	-12926
▁Scen	-12927
NC	-12928
шувањето	-12929
лти	-12930
▁nestled	-12931
▁пристиг	-12932
▁productive	-12933
annab	-12934
▁облека	-12935
▁genetics	-12936
▁computational	-12937
ailable	-12938
▁compound	-12939
▁Application	-12940
▁Sau	-12941
▁hour	-12942
▁вино	-12943
▁association	-12944
▁жал	-12945
▁Landsc	-12946
▁convert	-12947
бер	-12948
▁рамки	-12949
▁keyword	-12950
вока	-12951
шење	-12952
▁Mel	-12953
▁awa	-12954
▁vel	-12955
▁знаете	-12956
▁lip	-12957
прави	-12958
▁Amid	-12959
▁Здрав	-12960
▁следниве	-12961
▁inequality	-12962
▁мозо	-12963
▁линија	-12964
▁сообраќај	-12965
▁invested	-12966
`.	-12967
јска	-12968
▁button	-12969
▁Origins	-12970
▁encouraged	-12971
wing	-12972
▁reaction	-12973
▁материјали	-12974
▁susceptibility	-12975
наку	-12976
▁Hall	-12977
▁innate	-12978
▁posting	-12979
мос	-12980
incl	-12981
▁клуб	-12982
▁savvy	-12983
▁classical	-12984
▁il	-12985
▁Vict	-12986
▁cauti	-12987
▁изнена	-12988
▁законот	-12989
▁muse	-12990
▁смее	-12991
▁reposit	-12992
▁позиција	-12993
▁Personalized	-12994
▁lights	-12995
titative	-12996
фат	-12997
▁tag	-12998
ention	-12999
ossible	-13000
▁Events	-13001
▁indigenous	-13002
ptive	-13003
▁graphic	-13004
▁Willi	-13005
▁disability	-13006
▁сето	-13007
▁Поради	-13008
▁ВИ	-13009
▁broaden	-13010
▁distances	-13011
▁истражување	-13012
▁mathematical	-13013
▁susceptible	-13014
▁дополнителни	-13015
▁Wood	-13016
▁имам	-13017
▁agile	-13018
▁inches	-13019
▁пренесува	-13020
▁Li	-13021
▁cru	-13022
▁село	-13023
▁Simply	-13024
▁angles	-13025
▁Den	-13026
▁loading	-13027
Chat	-13028
▁Lux	-13029
▁посо	-13030
▁моти	-13031
▁разби	-13032
▁nonprofit	-13033
▁therapists	-13034
▁coordinating	-13035
▁Tem	-13036
proof	-13037
▁гради	-13038
▁книга	-13039
▁седум	-13040
▁условите	-13041
ФОТО	-13042
▁секс	-13043
▁јавен	-13044
▁христи	-13045
тегорија	-13046
▁заедница	-13047
▁motivated	-13048
▁advocates	-13049
▁genuinely	-13050
▁час	-13051
▁став	-13052
▁France	-13053
▁sending	-13054
▁stations	-13055
▁clinicians	-13056
фија	-13057
▁стави	-13058
▁teacher	-13059
▁Pred	-13060
▁Косово	-13061
▁browser	-13062
▁Resource	-13063
▁earnings	-13064
▁returning	-13065
▁bon	-13066
emade	-13067
▁Road	-13068
сел	-13069
estic	-13070
▁Live	-13071
▁влез	-13072
▁capac	-13073
▁August	-13074
▁излезе	-13075
tism	-13076
тото	-13077
▁aluminum	-13078
▁македонските	-13079
нге	-13080
лира	-13081
терот	-13082
▁turns	-13083
▁модер	-13084
▁Можеби	-13085
▁совреме	-13086
▁Hard	-13087
▁класи	-13088
▁attached	-13089
▁accepting	-13090
држа	-13091
▁Ден	-13092
eming	-13093
▁Accur	-13094
▁spectr	-13095
▁eggs	-13096
person	-13097
▁Teach	-13098
▁barrier	-13099
▁weapons	-13100
▁listings	-13101
▁регистри	-13102
poke	-13103
рска	-13104
▁Expect	-13105
▁cleaner	-13106
▁squad	-13107
▁closing	-13108
▁Ingredients	-13109
▁Count	-13110
▁Unique	-13111
▁displaying	-13112
aj	-13113
rus	-13114
▁spin	-13115
▁untapped	-13116
▁delectable	-13117
▁успех	-13118
▁dile	-13119
▁wasn	-13120
ceived	-13121
▁Needs	-13122
▁Универзитетот	-13123
▁Testing	-13124
▁variable	-13125
▁malicious	-13126
▁letters	-13127
▁resulted	-13128
▁swimming	-13129
▁possesses	-13130
▁lie	-13131
oldid	-13132
▁Body	-13133
▁Perhaps	-13134
▁copyright	-13135
▁fundamentals	-13136
fl	-13137
▁finds	-13138
▁outlets	-13139
uum	-13140
▁seal	-13141
▁стил	-13142
▁Break	-13143
▁слики	-13144
▁семејството	-13145
▁Coord	-13146
▁Investigate	-13147
▁essentially	-13148
▁Storytelling	-13149
▁inhab	-13150
▁Север	-13151
▁секре	-13152
▁верува	-13153
▁Tor	-13154
▁год	-13155
▁мно	-13156
oice	-13157
▁избра	-13158
▁јавни	-13159
▁blogs	-13160
▁поина	-13161
ependent	-13162
▁quarterback	-13163
▁ДЕ	-13164
▁grant	-13165
▁gleaned	-13166
▁improper	-13167
▁Approaches	-13168
▁LinkedIn	-13169
▁gathered	-13170
▁продажба	-13171
uary	-13172
▁mas	-13173
▁emergence	-13174
▁encouragement	-13175
▁роден	-13176
▁Mart	-13177
▁меша	-13178
▁bonding	-13179
стои	-13180
▁пија	-13181
▁знаци	-13182
▁земјите	-13183
▁perceive	-13184
idel	-13185
▁Сту	-13186
▁Влади	-13187
▁middle	-13188
▁revolves	-13189
▁extension	-13190
performance	-13191
читува	-13192
▁designer	-13193
▁maturity	-13194
angel	-13195
▁попла	-13196
▁Street	-13197
▁Transition	-13198
▁attributed	-13199
▁signing	-13200
▁ау	-13201
▁ист	-13202
▁крв	-13203
тално	-13204
istine	-13205
▁contents	-13206
▁sunlight	-13207
▁веројатно	-13208
▁нејзините	-13209
▁visualization	-13210
adata	-13211
ettes	-13212
▁biom	-13213
▁можам	-13214
▁serene	-13215
▁station	-13216
дол	-13217
▁Collaborating	-13218
▁inconsistencies	-13219
BS	-13220
▁Осно	-13221
rology	-13222
торите	-13223
▁polished	-13224
▁decrease	-13225
DM	-13226
жете	-13227
▁amplify	-13228
▁streets	-13229
rolling	-13230
▁infant	-13231
▁нивното	-13232
▁publishing	-13233
onut	-13234
▁Rap	-13235
▁Note	-13236
▁Obser	-13237
▁Testament	-13238
Cl	-13239
▁мисли	-13240
▁turned	-13241
▁judicious	-13242
▁experimenting	-13243
▁Four	-13244
▁gate	-13245
▁aqu	-13246
▁hall	-13247
▁undert	-13248
▁hydration	-13249
▁examinations	-13250
▁Sustainable	-13251
▁environmentally	-13252
▁nom	-13253
▁wearing	-13254
▁Укра	-13255
▁масло	-13256
▁Clinical	-13257
▁Depending	-13258
▁ambitious	-13259
dimensional	-13260
гле	-13261
сур	-13262
▁часови	-13263
▁cookies	-13264
довите	-13265
▁realities	-13266
▁financially	-13267
лината	-13268
Ds	-13269
ГА	-13270
▁наслед	-13271
▁lifestyles	-13272
рум	-13273
▁letter	-13274
▁страницата	-13275
orce	-13276
▁Python	-13277
▁altered	-13278
▁dramatic	-13279
▁забележа	-13280
▁orientation	-13281
berg	-13282
јтот	-13283
downs	-13284
▁скоп	-13285
▁Board	-13286
▁инова	-13287
▁bad	-13288
▁refuge	-13289
▁spectrum	-13290
ЦИЈА	-13291
▁Bu	-13292
▁spring	-13293
▁rational	-13294
▁Unlocking	-13295
▁appointment	-13296
▁fro	-13297
▁whis	-13298
▁стан	-13299
моција	-13300
▁looks	-13301
▁illeg	-13302
▁Diagnos	-13303
▁Nigeria	-13304
▁priority	-13305
▁conditioning	-13306
▁Short	-13307
istical	-13308
▁Series	-13309
▁investigating	-13310
тноста	-13311
▁denying	-13312
▁изнесува	-13313
▁kid	-13314
▁стари	-13315
▁pristine	-13316
▁dangerous	-13317
acc	-13318
▁campus	-13319
▁symbolism	-13320
▁um	-13321
▁измина	-13322
▁bacteria	-13323
▁guit	-13324
▁hence	-13325
▁biod	-13326
▁живо	-13327
▁седи	-13328
шките	-13329
▁Book	-13330
▁акција	-13331
▁истите	-13332
▁elusive	-13333
▁impression	-13334
▁territories	-13335
зин	-13336
▁brown	-13337
▁watches	-13338
▁Blockchain	-13339
ober	-13340
▁суб	-13341
▁password	-13342
▁директно	-13343
дејќи	-13344
▁basis	-13345
▁publications	-13346
▁плаќа	-13347
▁Changes	-13348
▁Gem	-13349
▁herbs	-13350
▁comply	-13351
rays	-13352
▁missed	-13353
▁neighboring	-13354
▁distractions	-13355
rates	-13356
▁последи	-13357
▁постапка	-13358
▁работите	-13359
▁certified	-13360
▁автомобил	-13361
рис	-13362
тека	-13363
▁upgrades	-13364
▁borrowers	-13365
▁threshold	-13366
▁ед	-13367
host	-13368
▁culm	-13369
▁претприја	-13370
▁израз	-13371
▁Moving	-13372
онал	-13373
▁aside	-13374
▁imbal	-13375
▁injured	-13376
▁ша	-13377
▁flags	-13378
говарате	-13379
▁molecules	-13380
▁Land	-13381
▁milestone	-13382
▁imb	-13383
▁првото	-13384
▁enabled	-13385
▁entrepreneur	-13386
yd	-13387
▁Pain	-13388
▁случаи	-13389
▁Questions	-13390
▁Staying	-13391
▁decline	-13392
▁кариера	-13393
▁Ast	-13394
▁mini	-13395
▁tall	-13396
▁Works	-13397
▁enzym	-13398
ectious	-13399
▁Resilience	-13400
▁десет	-13401
▁border	-13402
▁раковод	-13403
СИ	-13404
▁Југо	-13405
▁license	-13406
wikipedia	-13407
▁европски	-13408
▁steady	-13409
▁Вашата	-13410
▁Univers	-13411
▁пазарот	-13412
▁intens	-13413
ean	-13414
▁Sa	-13415
▁bags	-13416
▁bases	-13417
▁adorned	-13418
тус	-13419
tility	-13420
▁laser	-13421
▁illnesses	-13422
▁Typically	-13423
arms	-13424
▁Oct	-13425
▁Најдо	-13426
ervation	-13427
▁требало	-13428
▁volatility	-13429
▁Хи	-13430
este	-13431
▁Cup	-13432
▁Без	-13433
▁заста	-13434
▁pregnancy	-13435
roots	-13436
▁иска	-13437
▁Linux	-13438
▁големо	-13439
дро	-13440
▁Italy	-13441
▁Internet	-13442
SEO	-13443
манот	-13444
▁tones	-13445
▁Server	-13446
irds	-13447
▁мислам	-13448
cy	-13449
rix	-13450
▁гаран	-13451
▁заборави	-13452
▁Architect	-13453
▁mys	-13454
▁викен	-13455
▁убави	-13456
▁работни	-13457
▁овозможи	-13458
▁generates	-13459
▁launching	-13460
▁audit	-13461
▁просла	-13462
▁компјутер	-13463
▁die	-13464
riction	-13465
▁gluten	-13466
▁телефо	-13467
▁содржини	-13468
▁lyrics	-13469
▁composed	-13470
▁Es	-13471
▁occurring	-13472
▁Mis	-13473
▁scheme	-13474
▁барање	-13475
уби	-13476
▁Ten	-13477
▁Бра	-13478
▁assurance	-13479
▁задолжите	-13480
▁Liter	-13481
▁Шпа	-13482
▁Span	-13483
▁resort	-13484
▁кожата	-13485
▁Слободен	-13486
▁protections	-13487
▁disadvantages	-13488
pired	-13489
▁listed	-13490
▁Deliver	-13491
▁Tourism	-13492
▁instill	-13493
▁dash	-13494
▁соодве	-13495
▁bespoke	-13496
фра	-13497
need	-13498
▁Кина	-13499
▁Diam	-13500
▁анга	-13501
▁scaling	-13502
▁степени	-13503
▁cart	-13504
▁Сака	-13505
▁најмалку	-13506
▁iden	-13507
▁запи	-13508
▁bills	-13509
поде	-13510
сноста	-13511
▁разни	-13512
bling	-13513
▁модел	-13514
▁режим	-13515
▁passes	-13516
▁ministry	-13517
лта	-13518
odon	-13519
▁stance	-13520
фер	-13521
▁CT	-13522
чете	-13523
▁Reput	-13524
▁разбира	-13525
▁Ben	-13526
▁линк	-13527
ua	-13528
нис	-13529
▁Ken	-13530
first	-13531
organ	-13532
рниот	-13533
▁поза	-13534
▁Think	-13535
▁групата	-13536
around	-13537
▁maneu	-13538
▁километри	-13539
▁comparable	-13540
▁violations	-13541
ployment	-13542
▁patrons	-13543
▁recover	-13544
▁потпиша	-13545
feed	-13546
▁одред	-13547
▁Engage	-13548
▁владата	-13549
aired	-13550
▁Pray	-13551
▁Град	-13552
▁Lens	-13553
▁grab	-13554
charge	-13555
▁af	-13556
▁dress	-13557
▁readily	-13558
▁sellers	-13559
▁Squ	-13560
▁prov	-13561
▁Sarah	-13562
▁Activities	-13563
rup	-13564
▁ха	-13565
▁facet	-13566
▁Veg	-13567
▁shel	-13568
▁Learn	-13569
▁beach	-13570
▁decide	-13571
▁системи	-13572
▁форумот	-13573
▁nostalgia	-13574
▁diplomatic	-13575
тово	-13576
▁Gene	-13577
▁развојот	-13578
yard	-13579
▁deepening	-13580
function	-13581
▁disruption	-13582
▁consultation	-13583
▁finishing	-13584
тн	-13585
▁dear	-13586
▁Smith	-13587
▁несре	-13588
▁disaster	-13589
▁emphasized	-13590
▁alterations	-13591
▁conversions	-13592
▁врши	-13593
▁caught	-13594
▁Москва	-13595
▁ука	-13596
normal	-13597
▁Програ	-13598
▁boxes	-13599
▁salary	-13600
▁Seeking	-13601
▁полицијата	-13602
▁fr	-13603
▁island	-13604
▁equival	-13605
▁економија	-13606
▁Limitations	-13607
скоро	-13608
▁duty	-13609
тернати	-13610
▁atmospher	-13611
▁physiological	-13612
oT	-13613
▁пронај	-13614
▁delivered	-13615
▁protagonist	-13616
▁зашто	-13617
▁црква	-13618
▁zero	-13619
▁warran	-13620
▁endorse	-13621
▁processed	-13622
▁greenhouse	-13623
сер	-13624
rous	-13625
рома	-13626
▁erg	-13627
sters	-13628
▁Loans	-13629
▁AM	-13630
▁Children	-13631
▁readiness	-13632
▁elic	-13633
▁Config	-13634
▁следните	-13635
▁breakthrough	-13636
▁Vari	-13637
▁тера	-13638
▁secured	-13639
▁Programming	-13640
▁подол	-13641
▁relent	-13642
town	-13643
▁странство	-13644
▁Wel	-13645
▁Notably	-13646
▁substit	-13647
irgin	-13648
▁сметка	-13649
Ar	-13650
▁Sams	-13651
▁секу	-13652
angers	-13653
▁volunteer	-13654
▁tells	-13655
reements	-13656
▁fitting	-13657
▁consultations	-13658
▁Card	-13659
▁aged	-13660
outing	-13661
▁banking	-13662
ares	-13663
▁ago	-13664
▁сезо	-13665
▁здруже	-13666
жби	-13667
▁wants	-13668
Ка	-13669
▁оној	-13670
▁sculpt	-13671
▁театар	-13672
raveling	-13673
▁pharmac	-13674
▁одржува	-13675
▁Positive	-13676
▁системот	-13677
▁consisting	-13678
штето	-13679
▁prone	-13680
▁devoid	-13681
▁restaurant	-13682
NF	-13683
▁Storage	-13684
▁девојки	-13685
▁мала	-13686
▁civic	-13687
▁colleges	-13688
▁instructors	-13689
▁тури	-13690
▁Operations	-13691
зира	-13692
▁une	-13693
▁Mort	-13694
луваат	-13695
▁резер	-13696
одот	-13697
style	-13698
▁March	-13699
▁Вашиот	-13700
▁Нау	-13701
▁тебе	-13702
▁рекла	-13703
▁NBA	-13704
▁receives	-13705
▁advertise	-13706
▁skillsets	-13707
itude	-13708
▁Jane	-13709
▁honor	-13710
▁раска	-13711
▁технологија	-13712
▁busy	-13713
▁maps	-13714
▁liver	-13715
▁lengthy	-13716
▁седница	-13717
▁interference	-13718
▁еду	-13719
▁irre	-13720
health	-13721
▁Greek	-13722
jections	-13723
▁customize	-13724
orative	-13725
▁alleged	-13726
▁sterling	-13727
▁странски	-13728
▁Sens	-13729
▁employer	-13730
▁undermine	-13731
▁shot	-13732
▁Risks	-13733
▁адреса	-13734
▁fertile	-13735
▁имот	-13736
▁embrac	-13737
▁pepper	-13738
ada	-13739
▁маж	-13740
▁достиг	-13741
▁Oil	-13742
▁конти	-13743
▁трени	-13744
▁Спа	-13745
▁заја	-13746
▁Audience	-13747
lix	-13748
urt	-13749
yan	-13750
▁Sea	-13751
▁kne	-13752
▁Interest	-13753
▁occurred	-13754
▁transformations	-13755
▁стои	-13756
▁годината	-13757
▁clientele	-13758
▁restoring	-13759
▁permissions	-13760
сипе	-13761
▁Youn	-13762
▁понатаму	-13763
▁Retrieved	-13764
▁optimized	-13765
▁Или	-13766
▁Preparing	-13767
▁suggested	-13768
▁свои	-13769
▁заинтере	-13770
▁competitions	-13771
gl	-13772
nes	-13773
▁UV	-13774
бота	-13775
▁viral	-13776
▁Effec	-13777
▁Здруже	-13778
▁send	-13779
▁occurr	-13780
▁посетите	-13781
ов	-13782
▁lawyers	-13783
▁Symb	-13784
▁basics	-13785
▁Simultaneously	-13786
гови	-13787
▁resist	-13788
▁Appreci	-13789
▁Without	-13790
▁corners	-13791
▁соопште	-13792
▁озна	-13793
aneous	-13794
▁точно	-13795
▁OS	-13796
▁можности	-13797
reflection	-13798
▁натпревари	-13799
▁calculations	-13800
▁encountering	-13801
▁Wild	-13802
▁супер	-13803
tainment	-13804
▁правото	-13805
han	-13806
▁vying	-13807
risk	-13808
berry	-13809
▁volunteers	-13810
кне	-13811
▁РМ	-13812
▁Atl	-13813
▁disag	-13814
▁infectious	-13815
▁Ча	-13816
▁Germany	-13817
кции	-13818
▁depar	-13819
▁Transfer	-13820
▁retailers	-13821
кори	-13822
raising	-13823
▁arises	-13824
▁Најнови	-13825
otely	-13826
штвото	-13827
▁answers	-13828
сака	-13829
insic	-13830
▁Improvement	-13831
умот	-13832
▁апа	-13833
▁приват	-13834
▁binding	-13835
▁неопход	-13836
▁проценти	-13837
▁епи	-13838
▁возе	-13839
▁агенција	-13840
▁материјал	-13841
▁surrounded	-13842
▁кана	-13843
▁Theory	-13844
▁Hospital	-13845
▁definitions	-13846
лки	-13847
▁Lit	-13848
changing	-13849
▁оште	-13850
▁showing	-13851
-------------	-13852
iah	-13853
гро	-13854
▁asc	-13855
▁алат	-13856
▁бега	-13857
▁Three	-13858
▁static	-13859
▁енерге	-13860
▁summarize	-13861
ortion	-13862
▁моментов	-13863
▁Mastering	-13864
▁agriculture	-13865
рач	-13866
▁фр	-13867
▁Matters	-13868
▁initiating	-13869
utch	-13870
▁LGBT	-13871
натото	-13872
▁архите	-13873
▁renewed	-13874
▁навигација	-13875
лица	-13876
▁dust	-13877
▁essay	-13878
▁Reflect	-13879
adium	-13880
▁urgent	-13881
▁Bill	-13882
▁соју	-13883
ignant	-13884
▁chemistry	-13885
▁immersing	-13886
▁rehabilitation	-13887
▁карти	-13888
▁tomorrow	-13889
▁similarities	-13890
HD	-13891
▁Event	-13892
▁Urban	-13893
▁journ	-13894
▁physicians	-13895
▁controversy	-13896
▁натпреварот	-13897
ml	-13898
▁Statis	-13899
▁Musical	-13900
▁запа	-13901
▁unable	-13902
▁isolated	-13903
▁pleasure	-13904
▁skillset	-13905
▁resh	-13906
emaking	-13907
▁bridges	-13908
▁turnover	-13909
▁conveying	-13910
▁safeguards	-13911
va	-13912
ews	-13913
сии	-13914
tops	-13915
▁Grand	-13916
▁Compare	-13917
▁bridging	-13918
▁најчесто	-13919
▁represented	-13920
vo	-13921
▁Imm	-13922
income	-13923
▁studio	-13924
▁начинот	-13925
▁identical	-13926
еви	-13927
mmas	-13928
▁abandon	-13929
pol	-13930
▁luc	-13931
▁макси	-13932
▁Crafting	-13933
▁classrooms	-13934
ucks	-13935
исто	-13936
▁активи	-13937
▁withdraw	-13938
▁lose	-13939
▁Major	-13940
▁Studio	-13941
▁balances	-13942
▁deserves	-13943
▁diminished	-13944
▁engagements	-13945
▁buzz	-13946
▁motifs	-13947
▁mutually	-13948
arg	-13949
▁CS	-13950
рајќи	-13951
▁Terms	-13952
▁Годи	-13953
▁Negoti	-13954
▁stylish	-13955
▁alliances	-13956
▁constituents	-13957
otors	-13958
▁cleans	-13959
▁Academy	-13960
We	-13961
бини	-13962
ailed	-13963
▁closed	-13964
▁мета	-13965
▁hearing	-13966
▁потреби	-13967
▁boosting	-13968
▁precautions	-13969
needed	-13970
watering	-13971
▁outdated	-13972
▁remotely	-13973
▁располага	-13974
▁Jewish	-13975
▁Silver	-13976
▁churches	-13977
▁иденти	-13978
▁следната	-13979
irs	-13980
рес	-13981
токот	-13982
▁труд	-13983
▁beings	-13984
▁власта	-13985
▁logistical	-13986
▁approaching	-13987
pril	-13988
▁cooked	-13989
▁sequence	-13990
▁troubleshooting	-13991
idth	-13992
стени	-13993
▁Store	-13994
▁самите	-13995
▁Surround	-13996
▁cellular	-13997
▁affiliate	-13998
anes	-13999
▁Bat	-14000
▁Ису	-14001
places	-14002
▁Путин	-14003
▁дозволено	-14004
▁medi	-14005
▁премиерот	-14006
pressure	-14007
▁offices	-14008
▁Clim	-14009
▁plag	-14010
▁Balance	-14011
▁screening	-14012
▁милијарди	-14013
oul	-14014
site	-14015
▁submission	-14016
▁Transportation	-14017
▁sed	-14018
▁remained	-14019
▁trajectories	-14020
undred	-14021
▁legend	-14022
▁directions	-14023
▁пожа	-14024
▁audits	-14025
▁Hor	-14026
rammar	-14027
▁Потоа	-14028
▁Conflict	-14029
▁Win	-14030
▁Miss	-14031
▁документи	-14032
▁pertaining	-14033
▁Институ	-14034
rog	-14035
una	-14036
ontal	-14037
▁react	-14038
▁желба	-14039
▁Samsung	-14040
▁вештини	-14041
▁situated	-14042
пр	-14043
▁убе	-14044
▁ефекти	-14045
▁possession	-14046
ita	-14047
▁referrals	-14048
▁остро	-14049
▁absorb	-14050
▁Recognize	-14051
▁misconceptions	-14052
LA	-14053
iller	-14054
▁Celebr	-14055
▁underpinning	-14056
▁ramifications	-14057
жени	-14058
▁некое	-14059
▁spacious	-14060
▁Che	-14061
▁mandatory	-14062
Ms	-14063
rot	-14064
бови	-14065
▁sonic	-14066
▁bottle	-14067
▁девојка	-14068
▁dominant	-14069
▁merchand	-14070
▁immigration	-14071
▁Sus	-14072
▁Past	-14073
▁Maxim	-14074
▁Learned	-14075
▁activation	-14076
јор	-14077
screen	-14078
▁Можете	-14079
▁MS	-14080
▁Над	-14081
▁Gard	-14082
▁dign	-14083
porting	-14084
▁sweetness	-14085
▁infections	-14086
зете	-14087
▁expose	-14088
▁recall	-14089
▁January	-14090
▁уметност	-14091
▁occasions	-14092
ras	-14093
▁РА	-14094
trans	-14095
▁Graph	-14096
▁Justice	-14097
▁пребар	-14098
▁infused	-14099
▁Construction	-14100
леко	-14101
▁lod	-14102
▁остави	-14103
▁познат	-14104
▁дозвола	-14105
▁replacing	-14106
▁redemption	-14107
▁smartphone	-14108
▁лидер	-14109
▁Introducing	-14110
AA	-14111
стар	-14112
▁nodes	-14113
мин	-14114
▁најва	-14115
▁Movement	-14116
▁adaptations	-14117
▁musc	-14118
▁diets	-14119
▁Festiv	-14120
▁fantastic	-14121
▁traditionally	-14122
лец	-14123
▁Ach	-14124
▁Spanish	-14125
▁добијат	-14126
тек	-14127
▁напи	-14128
▁надле	-14129
▁preventive	-14130
inants	-14131
▁двајца	-14132
цира	-14133
рение	-14134
▁menus	-14135
▁worked	-14136
▁loving	-14137
▁Ber	-14138
duate	-14139
▁инспи	-14140
▁серија	-14141
▁cosmetic	-14142
▁magnetic	-14143
▁fabrication	-14144
▁diver	-14145
рина	-14146
▁tea	-14147
▁defenders	-14148
▁Que	-14149
▁потсе	-14150
▁charged	-14151
▁притисок	-14152
реј	-14153
▁iterations	-14154
▁решенија	-14155
▁Ir	-14156
▁Vehic	-14157
▁Calc	-14158
▁absol	-14159
atever	-14160
▁redund	-14161
▁survey	-14162
▁reperto	-14163
▁Christmas	-14164
ims	-14165
gence	-14166
▁Mont	-14167
▁Уште	-14168
▁одви	-14169
▁disappoint	-14170
▁Cut	-14171
▁buildu	-14172
▁speaker	-14173
▁compression	-14174
osc	-14175
▁miles	-14176
▁reached	-14177
▁homemade	-14178
▁содржината	-14179
▁dos	-14180
pieces	-14181
▁Failure	-14182
▁цела	-14183
▁steeped	-14184
▁Scripture	-14185
▁quest	-14186
▁манасти	-14187
▁внатрешни	-14188
oof	-14189
▁stabil	-14190
▁доживе	-14191
БО	-14192
hyd	-14193
▁mim	-14194
▁итн	-14195
tisan	-14196
▁привле	-14197
▁linking	-14198
placement	-14199
▁Dog	-14200
▁Clos	-14201
▁Lou	-14202
▁Scal	-14203
сирани	-14204
▁вежба	-14205
▁лицето	-14206
▁subscrib	-14207
▁Mountain	-14208
▁финансиски	-14209
▁hal	-14210
јцата	-14211
▁beat	-14212
▁Champ	-14213
▁violent	-14214
▁Artistry	-14215
▁обу	-14216
▁resc	-14217
▁Hidden	-14218
▁treats	-14219
шени	-14220
-----	-14221
▁twist	-14222
▁зголе	-14223
▁Basics	-14224
▁branches	-14225
▁detailing	-14226
mal	-14227
▁tro	-14228
рната	-14229
▁newer	-14230
▁boasting	-14231
▁fats	-14232
дон	-14233
▁Nur	-14234
▁Ven	-14235
▁Пат	-14236
PO	-14237
мк	-14238
▁Cand	-14239
▁Струмица	-14240
▁dentistry	-14241
rance	-14242
▁welcome	-14243
▁passages	-14244
▁идентите	-14245
▁Qual	-14246
▁subt	-14247
▁снима	-14248
uated	-14249
▁Heart	-14250
▁татко	-14251
▁Cancer	-14252
▁scholar	-14253
▁territory	-14254
▁culminating	-14255
▁odds	-14256
▁Кори	-14257
ematic	-14258
▁drills	-14259
▁манифе	-14260
мисијата	-14261
▁престој	-14262
▁competence	-14263
win	-14264
еле	-14265
▁haven	-14266
platform	-14267
▁shorter	-14268
▁комента	-14269
▁approved	-14270
▁најдобро	-14271
▁repetitive	-14272
▁contributors	-14273
МО	-14274
▁arc	-14275
▁вло	-14276
▁analog	-14277
▁permits	-14278
▁adoles	-14279
▁warning	-14280
▁недоста	-14281
▁efficiencies	-14282
thes	-14283
▁copies	-14284
▁Git	-14285
▁извори	-14286
▁Conduct	-14287
▁surpris	-14288
amper	-14289
▁Drug	-14290
▁Communities	-14291
iliation	-14292
▁modifying	-14293
зад	-14294
▁vaccine	-14295
▁воздух	-14296
▁сексуа	-14297
▁dispute	-14298
▁comprises	-14299
▁Reflecting	-14300
="	-14301
phony	-14302
▁Штип	-14303
▁fiscal	-14304
▁rating	-14305
▁Catholic	-14306
▁принци	-14307
▁programmers	-14308
▁san	-14309
▁resonance	-14310
▁sky	-14311
earing	-14312
▁мажите	-14313
▁сектор	-14314
▁fixtures	-14315
▁случајот	-14316
▁проблемот	-14317
idental	-14318
▁значење	-14319
yles	-14320
▁maj	-14321
▁Дра	-14322
inates	-14323
▁Broad	-14324
▁Gather	-14325
▁arrive	-14326
▁Поглед	-14327
▁nutrient	-14328
rying	-14329
▁cham	-14330
▁предлог	-14331
▁јавност	-14332
▁overcoming	-14333
▁touchpoints	-14334
▁aer	-14335
▁сметаат	-14336
▁Electric	-14337
▁invasive	-14338
натиот	-14339
▁каков	-14340
▁broken	-14341
▁prohib	-14342
▁обидува	-14343
▁mouthwatering	-14344
▁arms	-14345
▁јаде	-14346
theast	-14347
▁бидеме	-14348
▁stressors	-14349
▁Connections	-14350
▁идеи	-14351
▁acumen	-14352
▁транспорт	-14353
upp	-14354
▁Film	-14355
tax	-14356
▁Civ	-14357
▁trop	-14358
▁весник	-14359
▁температура	-14360
▁comprehending	-14361
леј	-14362
▁менаџ	-14363
▁Double	-14364
▁realms	-14365
▁Overall	-14366
ias	-14367
▁coal	-14368
▁writer	-14369
▁Keeping	-14370
▁анализа	-14371
▁flo	-14372
ботените	-14373
▁Finance	-14374
▁theological	-14375
born	-14376
▁planned	-14377
▁Exercise	-14378
СА	-14379
add	-14380
bies	-14381
ractic	-14382
▁regimen	-14383
▁endurance	-14384
cor	-14385
тена	-14386
isher	-14387
rection	-14388
▁suffer	-14389
▁prompts	-14390
operative	-14391
▁decorative	-14392
рет	-14393
▁hundred	-14394
▁англиски	-14395
ij	-14396
селе	-14397
▁Relig	-14398
pling	-14399
▁pairing	-14400
▁Regional	-14401
▁Connecting	-14402
▁PDF	-14403
weet	-14404
▁кого	-14405
▁agend	-14406
▁prevailing	-14407
▁accumulation	-14408
▁вклучувајќи	-14409
▁DIY	-14410
▁Goals	-14411
▁critic	-14412
▁journalists	-14413
▁МИ	-14414
lease	-14415
▁plas	-14416
▁studi	-14417
▁изврши	-14418
▁Agency	-14419
▁unknown	-14420
▁accompanying	-14421
▁Бер	-14422
▁gluc	-14423
▁rentals	-14424
▁dimension	-14425
▁discounts	-14426
▁altogether	-14427
▁instrument	-14428
istas	-14429
▁rail	-14430
▁nerve	-14431
▁остане	-14432
▁failed	-14433
▁invite	-14434
▁needing	-14435
▁disasters	-14436
▁adversaries	-14437
itan	-14438
бран	-14439
▁bars	-14440
inals	-14441
▁пара	-14442
▁flash	-14443
▁Canadian	-14444
▁Revolution	-14445
BI	-14446
ediatric	-14447
▁keen	-14448
▁sheets	-14449
▁tasked	-14450
designed	-14451
▁removed	-14452
▁Perspectives	-14453
▁конференција	-14454
▁explos	-14455
PD	-14456
rob	-14457
▁assigned	-14458
▁cerem	-14459
▁resiliency	-14460
гно	-14461
тров	-14462
▁Lord	-14463
▁polar	-14464
▁квали	-14465
▁cinema	-14466
▁општестве	-14467
▁possibility	-14468
▁Lif	-14469
▁Вто	-14470
▁mobil	-14471
▁upgrade	-14472
▁suspension	-14473
▁карактеристики	-14474
fare	-14475
▁своја	-14476
▁Private	-14477
▁предмети	-14478
iropractic	-14479
▁attendance	-14480
▁specialize	-14481
PE	-14482
▁ax	-14483
▁trib	-14484
▁наве	-14485
▁satur	-14486
▁intent	-14487
generated	-14488
▁dough	-14489
▁просе	-14490
▁creatively	-14491
▁registered	-14492
che	-14493
▁induc	-14494
▁најдете	-14495
мп	-14496
ecks	-14497
▁уметни	-14498
▁conclusions	-14499
▁зага	-14500
раната	-14501
▁алтернати	-14502
▁заеднички	-14503
▁соба	-14504
▁Circ	-14505
▁Scot	-14506
ribute	-14507
▁titled	-14508
▁фотографија	-14509
iants	-14510
▁сведо	-14511
▁clinics	-14512
▁extensions	-14513
▁fits	-14514
ronomy	-14515
▁Три	-14516
▁trades	-14517
▁Oh	-14518
▁Орга	-14519
produc	-14520
▁loops	-14521
▁precon	-14522
▁academia	-14523
▁divisions	-14524
nis	-14525
▁ПРЕ	-14526
▁загина	-14527
▁смртта	-14528
леновите	-14529
▁teeming	-14530
▁comparison	-14531
све	-14532
erson	-14533
▁Inspir	-14534
▁dinner	-14535
▁Послед	-14536
▁предвид	-14537
▁Settings	-14538
▁Partnerships	-14539
▁исче	-14540
powered	-14541
▁Divine	-14542
▁latter	-14543
▁multil	-14544
▁порака	-14545
▁regulate	-14546
▁lineup	-14547
▁intersect	-14548
tech	-14549
ugging	-14550
resented	-14551
▁folk	-14552
▁numer	-14553
▁notably	-14554
▁recognizes	-14555
▁Ep	-14556
▁View	-14557
▁king	-14558
utures	-14559
▁фактот	-14560
▁Бан	-14561
▁Greet	-14562
▁Британија	-14563
▁individually	-14564
кта	-14565
▁криза	-14566
▁hazard	-14567
▁автобу	-14568
▁ROI	-14569
▁Sand	-14570
▁прива	-14571
▁circles	-14572
▁функција	-14573
▁concentrations	-14574
amed	-14575
▁hem	-14576
дните	-14577
▁Doing	-14578
regation	-14579
▁WhatsChat	-14580
▁dissemination	-14581
дан	-14582
фот	-14583
▁Effects	-14584
▁activism	-14585
▁dilemmas	-14586
▁legislative	-14587
▁differentiate	-14588
жниот	-14589
▁vertical	-14590
▁bass	-14591
▁buff	-14592
▁дизај	-14593
▁forced	-14594
▁одржување	-14595
▁capacities	-14596
▁интен	-14597
▁симбо	-14598
▁treated	-14599
▁district	-14600
▁Po	-14601
unic	-14602
▁Inj	-14603
▁breach	-14604
▁comprising	-14605
itor	-14606
▁мало	-14607
▁Некои	-14608
▁honesty	-14609
▁April	-14610
▁концеп	-14611
▁познати	-14612
▁abundant	-14613
▁lucrative	-14614
▁Protecting	-14615
дор	-14616
▁Brown	-14617
▁слободно	-14618
▁Tac	-14619
onald	-14620
▁enfor	-14621
▁Developers	-14622
▁праз	-14623
▁довер	-14624
▁acclaim	-14625
▁ocean	-14626
▁union	-14627
венција	-14628
▁seeing	-14629
▁фестивал	-14630
▁unlocking	-14631
▁Creativity	-14632
za	-14633
reated	-14634
▁recru	-14635
▁Victor	-14636
[...]
